{
  "version": "1.0",
  "truncation": null,
  "padding": null,
  "added_tokens": [
    {
      "id": 0,
      "content": "[UNK]",
      "single_word": false,
      "lstrip": false,
      "rstrip": false,
      "normalized": false,
      "special": true
    }
  ],
  "normalizer": null,
  "pre_tokenizer": {
    "type": "Whitespace"
  },
  "post_processor": null,
  "decoder": null,
  "model": {
    "type": "BPE",
    "dropout": null,
    "unk_token": "[UNK]",
    "continuing_subword_prefix": null,
    "end_of_word_suffix": null,
    "fuse_unk": false,
    "byte_fallback": false,
    "ignore_merges": false,
    "vocab": {
      "[UNK]": 0,
      "!": 1,
      "(": 2,
      ")": 3,
      ",": 4,
      "-": 5,
      ".": 6,
      "0": 7,
      "1": 8,
      "2": 9,
      "3": 10,
      "4": 11,
      "5": 12,
      "6": 13,
      "7": 14,
      "8": 15,
      "9": 16,
      ":": 17,
      ";": 18,
      "?": 19,
      "A": 20,
      "B": 21,
      "D": 22,
      "E": 23,
      "F": 24,
      "G": 25,
      "H": 26,
      "I": 27,
      "J": 28,
      "K": 29,
      "L": 30,
      "M": 31,
      "N": 32,
      "O": 33,
      "P": 34,
      "R": 35,
      "S": 36,
      "T": 37,
      "U": 38,
      "W": 39,
      "Y": 40,
      "a": 41,
      "b": 42,
      "d": 43,
      "e": 44,
      "f": 45,
      "g": 46,
      "h": 47,
      "i": 48,
      "j": 49,
      "k": 50,
      "l": 51,
      "m": 52,
      "n": 53,
      "o": 54,
      "p": 55,
      "r": 56,
      "s": 57,
      "t": 58,
      "u": 59,
      "w": 60,
      "y": 61,
      "À": 62,
      "Á": 63,
      "È": 64,
      "É": 65,
      "Ì": 66,
      "Í": 67,
      "Ò": 68,
      "Ó": 69,
      "Ù": 70,
      "Ú": 71,
      "à": 72,
      "á": 73,
      "è": 74,
      "é": 75,
      "ì": 76,
      "í": 77,
      "ò": 78,
      "ó": 79,
      "ù": 80,
      "ú": 81,
      "Ń": 82,
      "ń": 83,
      "Ǹ": 84,
      "ǹ": 85,
      "̀": 86,
      "́": 87,
      "Ṣ": 88,
      "ṣ": 89,
      "Ẹ": 90,
      "ẹ": 91,
      "Ọ": 92,
      "ọ": 93,
      "—": 94,
      "‘": 95,
      "’": 96,
      "“": 97,
      "”": 98,
      "…": 99,
      "wọ": 100,
      "ẹ̀": 101,
      "gb": 102,
      "ti": 103,
      "ọ́": 104,
      "wọn": 105,
      "ní": 106,
      "tí": 107,
      "ẹ́": 108,
      "ọ̀": 109,
      "sì": 110,
      "ni": 111,
      "ún": 112,
      "un": 113,
      "àwọn": 114,
      "rí": 115,
      "lá": 116,
      "ra": 117,
      "in": 118,
      "mi": 119,
      "sí": 120,
      "rẹ̀": 121,
      "àti": 122,
      "fún": 123,
      "gbo": 124,
      "àn": 125,
      "wọ́": 126,
      "óò": 127,
      "yóò": 128,
      "áà": 129,
      "ṣe": 130,
      "pé": 131,
      "yí": 132,
      "bí": 133,
      "fi": 134,
      "gbà": 135,
      "ùn": 136,
      "an": 137,
      "kí": 138,
      "náà": 139,
      "lẹ̀": 140,
      "ba": 141,
      "mọ": 142,
      "orí": 143,
      "lọ́": 144,
      "pa": 145,
      "Ní": 146,
      "kò": 147,
      "lú": 148,
      "wá": 149,
      "wọ́n": 150,
      "nú": 151,
      "ọmọ": 152,
      "ìy": 153,
      "li": 154,
      "láti": 155,
      "run": 156,
      "ọ́n": 157,
      "kan": 158,
      "rẹ": 159,
      "jú": 160,
      "lé": 161,
      "ìn": 162,
      "bá": 163,
      "jẹ́": 164,
      "rin": 165,
      "torí": 166,
      "wí": 167,
      "gbogbo": 168,
      "ló": 169,
      "lọ": 170,
      "rá": 171,
      "dá": 172,
      "úr": 173,
      "di": 174,
      "ìyàn": 175,
      "mú": 176,
      "mọ́": 177,
      "wa": 178,
      "wà": 179,
      "nínú": 180,
      "nìyàn": 181,
      "ìí": 182,
      "ènìyàn": 183,
      "lọ́run": 184,
      "kọ": 185,
      "yín": 186,
      "ri": 187,
      "Ọlọ́run": 188,
      "kùn": 189,
      "má": 190,
      "pẹ̀": 191,
      "gbọ́n": 192,
      "bi": 193,
      "oh": 194,
      "mu": 195,
      "ìwọ": 196,
      "pẹ̀lú": 197,
      "mí": 198,
      "rú": 199,
      "sọ": 200,
      "gẹ́": 201,
      "ùgbọ́n": 202,
      "ọba": 203,
      "gbé": 204,
      "dà": 205,
      "ohun": 206,
      "ara": 207,
      "mo": 208,
      ".”": 209,
      "Je": 210,
      "èmi": 211,
      "ẹni": 212,
      "ẹli": 213,
      "nítorí": 214,
      "de": 215,
      "yìí": 216,
      "ṣẹ́": 217,
      "Nígbà": 218,
      "ta": 219,
      "kùnrin": 220,
      "Is": 221,
      "jì": 222,
      "jọ́": 223,
      "rọ̀": 224,
      "ilẹ̀": 225,
      "ẹ̀y": 226,
      "já": 227,
      "bẹ̀": 228,
      "Isra": 229,
      "Israẹli": 230,
      "bu": 231,
      "re": 232,
      "pọ̀": 233,
      "lù": 234,
      "gun": 235,
      "kú": 236,
      "ah": 237,
      "jẹ": 238,
      "máa": 239,
      "dọ̀": 240,
      "lórí": 241,
      "ará": 242,
      "dí": 243,
      "là": 244,
      "si": 245,
      "Nítorí": 246,
      "da": 247,
      "kó": 248,
      "kè": 249,
      "ibi": 250,
      "dé": 251,
      "lẹ́": 252,
      "rán": 253,
      "fẹ́": 254,
      "Èmi": 255,
      "ọ̀n": 256,
      "úrò": 257,
      "ilé": 258,
      "le": 259,
      "èyí": 260,
      "Àwọn": 261,
      "kúrò": 262,
      "wọ̀": 263,
      "tà": 264,
      "ọjọ́": 265,
      "kì": 266,
      "bo": 267,
      "do": 268,
      "ọ̀rọ̀": 269,
      "ẹ́ẹ̀": 270,
      "bú": 271,
      "ru": 272,
      "alá": 273,
      "gbọ́": 274,
      "rè": 275,
      "sa": 276,
      "nígbà": 277,
      "sin": 278,
      "Mo": 279,
      "Ṣùgbọ́n": 280,
      "ka": 281,
      "wájú": 282,
      "tó": 283,
      "ay": 284,
      "mọ̀": 285,
      "lè": 286,
      "pá": 287,
      "kọ́": 288,
      "kàn": 289,
      "ṣùgbọ́n": 290,
      "gẹ́gẹ́": 291,
      "padà": 292,
      "ẹ̀yin": 293,
      "ojú": 294,
      "ran": 295,
      "dúr": 296,
      "yìn": 297,
      "se": 298,
      "ki": 299,
      "inú": 300,
      "wọ̀n": 301,
      "jáde": 302,
      "mé": 303,
      "tọ́": 304,
      "ọkùnrin": 305,
      "kẹ́": 306,
      "ìlú": 307,
      "tàbí": 308,
      "ẹn": 309,
      "gi": 310,
      "tẹ́": 311,
      "rùn": 312,
      "ára": 313,
      "ro": 314,
      "yè": 315,
      "ràn": 316,
      "àà": 317,
      "bìn": 318,
      "bìnrin": 319,
      "kù": 320,
      "ìgbà": 321,
      "nípa": 322,
      "lọ́wọ́": 323,
      "ọ̀nà": 324,
      "ṣẹ": 325,
      "sílẹ̀": 326,
      "ọwọ́": 327,
      "kún": 328,
      "Da": 329,
      "Jo": 330,
      "jọ": 331,
      "ma": 332,
      "wò": 333,
      "Wọ́n": 334,
      "ké": 335,
      "án": 336,
      "àá": 337,
      "baba": 338,
      "kọ̀": 339,
      "rín": 340,
      "su": 341,
      "kà": 342,
      "eli": 343,
      "dè": 344,
      "Bí": 345,
      "gba": 346,
      "ṣẹ̀": 347,
      "dúró": 348,
      "iṣẹ́": 349,
      "òun": 350,
      "mẹ́": 351,
      "bọ": 352,
      "tún": 353,
      "òkè": 354,
      "Jesu": 355,
      "bẹ́ẹ̀": 356,
      "dì": 357,
      "ha": 358,
      "ko": 359,
      "àg": 360,
      "Kí": 361,
      "rù": 362,
      "ogun": 363,
      "bù": 364,
      "lu": 365,
      "ránṣẹ́": 366,
      "Sa": 367,
      "aṣ": 368,
      "èrè": 369,
      "ọkàn": 370,
      "ke": 371,
      "ín": 372,
      "gbára": 373,
      "mímọ́": 374,
      "hùn": 375,
      "níwájú": 376,
      "fidi": 377,
      "Dafidi": 378,
      "títí": 379,
      "só": 380,
      "Ìwọ": 381,
      "ayé": 382,
      "yà": 383,
      "rà": 384,
      "àwa": 385,
      "pẹ": 386,
      "ìṣ": 387,
      "ńlá": 388,
      "ìj": 389,
      "lẹ": 390,
      "tá": 391,
      "wọ̀nyí": 392,
      "ìp": 393,
      "dún": 394,
      "rúkọ": 395,
      "ká": 396,
      "ẹbọ": 397,
      "tẹ̀": 398,
      "ẹnu": 399,
      "Ju": 400,
      "wo": 401,
      "lùf": 402,
      "fin": 403,
      "lúwa": 404,
      "Ba": 405,
      "lùfáà": 406,
      "wó": 407,
      "rò": 408,
      "ga": 409,
      "fà": 410,
      "ró": 411,
      "ré": 412,
      "ìránṣẹ́": 413,
      "láà": 414,
      "burú": 415,
      "gbè": 416,
      "omi": 417,
      "Juda": 418,
      "la": 419,
      "gún": 420,
      "sẹ̀": 421,
      "àlùfáà": 422,
      "na": 423,
      "lò": 424,
      "tàn": 425,
      "sti": 426,
      "ọ̀dọ̀": 427,
      "orúkọ": 428,
      "ẹran": 429,
      "ye": 430,
      "méjì": 431,
      "Mose": 432,
      "àṣẹ": 433,
      "dára": 434,
      "tì": 435,
      "ọn": 436,
      "èdè": 437,
      "ọ̀kan": 438,
      "búburú": 439,
      "jù": 440,
      "gbẹ́": 441,
      "ìdá": 442,
      "oni": 443,
      "láàrín": 444,
      "Jeru": 445,
      "akọ": 446,
      "lẹmu": 447,
      "lára": 448,
      "wúr": 449,
      "Jerusa": 450,
      "Jerusalẹmu": 451,
      "Ẹ̀": 452,
      "nì": 453,
      "pè": 454,
      "ìdí": 455,
      "ọdún": 456,
      "gbọ": 457,
      "aláì": 458,
      "jẹ̀": 459,
      "oní": 460,
      "òkú": 461,
      "?”": 462,
      "sá": 463,
      "rìn": 464,
      "ǹkan": 465,
      "Ej": 466,
      "àì": 467,
      "ibiti": 468,
      "Ejibiti": 469,
      "Olúwa": 470,
      "ẹ̀ṣẹ̀": 471,
      "òfin": 472,
      "olórí": 473,
      "sínú": 474,
      "wé": 475,
      "àj": 476,
      "orílẹ̀": 477,
      "nǹkan": 478,
      "so": 479,
      "Be": 480,
      "ili": 481,
      "ìh": 482,
      "láé": 483,
      "aṣọ": 484,
      "gbọdọ̀": 485,
      "lo": 486,
      "dọ́": 487,
      "tọ̀": 488,
      "Èyí": 489,
      "yin": 490,
      "kọjá": 491,
      "tù": 492,
      "go": 493,
      "sun": 494,
      "sọ̀rọ̀": 495,
      "tú": 496,
      "obìnrin": 497,
      "dodo": 498,
      "lí": 499,
      ".’": 500,
      "agbára": 501,
      "igi": 502,
      "jó": 503,
      "Si": 504,
      "ọ̀run": 505,
      "bà": 506,
      "ṣù": 507,
      "olù": 508,
      "rere": 509,
      "méj": 510,
      "ulu": 511,
      "Gbo": 512,
      "Gbogbo": 513,
      "fa": 514,
      "oló": 515,
      "dù": 516,
      "ṣu": 517,
      "gbọ̀n": 518,
      "bé": 519,
      "kun": 520,
      "Bẹ́ẹ̀": 521,
      "hàn": 522,
      "arákùnrin": 523,
      "tò": 524,
      "moni": 525,
      "bínú": 526,
      "pe": 527,
      "ẹ̀mí": 528,
      "gbẹ̀": 529,
      "ọ̀pọ̀": 530,
      "lẹ́yìn": 531,
      "kejì": 532,
      "ẹ́yìn": 533,
      "àgọ́": 534,
      "Kri": 535,
      "ja": 536,
      "Kristi": 537,
      "pò": 538,
      "sinsin": 539,
      "tu": 540,
      "sókè": 541,
      "pó": 542,
      "fí": 543,
      "dìde": 544,
      "Ab": 545,
      "ṣin": 546,
      "níbẹ̀": 547,
      "bọ̀": 548,
      "dùn": 549,
      "gidi": 550,
      "roni": 551,
      "ìyà": 552,
      "béèrè": 553,
      "kẹ́ni": 554,
      "sìn": 555,
      "títọ́": 556,
      "bẹ": 557,
      "ṣí": 558,
      "iná": 559,
      "tẹ": 560,
      "dáhùn": 561,
      "ẹ̀yìn": 562,
      "ìdílé": 563,
      "kòó": 564,
      "Le": 565,
      "He": 566,
      "Ọ̀": 567,
      "00": 568,
      "kẹ": 569,
      "te": 570,
      "be": 571,
      "dò": 572,
      "gbó": 573,
      "sán": 574,
      "bẹ̀rù": 575,
      "yẹ": 576,
      "Ṣe": 577,
      "èjì": 578,
      "ìwà": 579,
      "Ẹni": 580,
      "dó": 581,
      "jí": 582,
      "kalẹ̀": 583,
      "làá": 584,
      "Se": 585,
      "yàn": 586,
      "ẹ̀yà": 587,
      "ani": 588,
      "gí": 589,
      "kẹ̀": 590,
      "dàbí": 591,
      "ria": 592,
      "mìí": 593,
      "ìfẹ́": 594,
      "ẹnì": 595,
      "ku": 596,
      "òrùn": 597,
      "lójú": 598,
      "Ha": 599,
      "únjẹ": 600,
      "mìíràn": 601,
      "fun": 602,
      "ọmọkùnrin": 603,
      "tẹ́lẹ̀": 604,
      "Ǹjẹ́": 605,
      "Bá": 606,
      "bò": 607,
      "pàṣẹ": 608,
      "ju": 609,
      "wúrà": 610,
      "líì": 611,
      "Eli": 612,
      "ògo": 613,
      "oòrùn": 614,
      "hun": 615,
      "ùntàn": 616,
      "Lẹ́yìn": 617,
      "Òun": 618,
      "oúnjẹ": 619,
      "ya": 620,
      "àkó": 621,
      "Jakọ": 622,
      "gbò": 623,
      "etí": 624,
      "Jakọbu": 625,
      "ìbá": 626,
      "nu": 627,
      "lọ́dọ̀": 628,
      "ọmọbìnrin": 629,
      "amu": 630,
      "ho": 631,
      "ọrẹ": 632,
      "wàá": 633,
      "úpọ̀": 634,
      "àgùntàn": 635,
      "púpọ̀": 636,
      "pẹpẹ": 637,
      "mì": 638,
      "gbe": 639,
      "ọ̀tá": 640,
      "sórí": 641,
      "bẹ́": 642,
      "sọ́": 643,
      "ìran": 644,
      "Gi": 645,
      "mà": 646,
      "ọlọ́": 647,
      "irú": 648,
      "wòlíì": 649,
      "lúù": 650,
      "idà": 651,
      "ṣa": 652,
      "ẹlẹ́": 653,
      "Saulu": 654,
      "ẹsẹ̀": 655,
      "fíà": 656,
      "làáfíà": 657,
      "ẹnikẹ́ni": 658,
      "ààyè": 659,
      "màlúù": 660,
      "mọ́lẹ̀": 661,
      "Wọn": 662,
      "beli": 663,
      "Ta": 664,
      "sàn": 665,
      "ibù": 666,
      "jókòó": 667,
      "yọ": 668,
      "àní": 669,
      "san": 670,
      "fu": 671,
      "sẹ": 672,
      "pẹ́": 673,
      "nà": 674,
      "So": 675,
      "ṣi": 676,
      "Pe": 677,
      "me": 678,
      "rẹ́": 679,
      "abu": 680,
      "òkúta": 681,
      "rìṣ": 682,
      "ìwọ̀": 683,
      "rìṣà": 684,
      "ṣọ́": 685,
      "Òkun": 686,
      ",”": 687,
      "ìdájọ́": 688,
      "rìí": 689,
      "ná": 690,
      "ìmọ̀": 691,
      "ìhà": 692,
      "Lefi": 693,
      "àgbà": 694,
      "àlàáfíà": 695,
      "òdodo": 696,
      "Ke": 697,
      "ìjọba": 698,
      "Oló": 699,
      "sù": 700,
      "Ma": 701,
      "Má": 702,
      "ìbínú": 703,
      "ẹ̀jẹ̀": 704,
      "tilẹ̀": 705,
      "lóhùn": 706,
      "àánú": 707,
      "ìní": 708,
      "ìwé": 709,
      "!”": 710,
      "aroni": 711,
      "òtítọ́": 712,
      "aya": 713,
      "ẹnìkan": 714,
      "pà": 715,
      "lọpọ̀": 716,
      "tan": 717,
      "ohùn": 718,
      "Aaroni": 719,
      "ìpa": 720,
      "jà": 721,
      "òrìṣà": 722,
      "tọ": 723,
      "níbi": 724,
      "iah": 725,
      "sè": 726,
      "kọ̀ọ̀kan": 727,
      "Babeli": 728,
      "Àti": 729,
      "tun": 730,
      "ogún": 731,
      "ṣá": 732,
      "sùn": 733,
      "bùkún": 734,
      "Ẹ̀yin": 735,
      "Mi": 736,
      "anu": 737,
      "méje": 738,
      "odò": 739,
      "rún": 740,
      "iye": 741,
      "sọ̀": 742,
      "bẹ̀rẹ̀": 743,
      "àárín": 744,
      "ótọ́": 745,
      "rì": 746,
      "dín": 747,
      "Lá": 748,
      "jò": 749,
      "marè": 750,
      "dùmarè": 751,
      "Olódùmarè": 752,
      "Fili": 753,
      "mẹ́ta": 754,
      "síbẹ̀": 755,
      "dúrà": 756,
      ":“": 757,
      "Na": 758,
      "síwájú": 759,
      "bọ́": 760,
      "àkókò": 761,
      "yé": 762,
      "yèsi": 763,
      "lùkù": 764,
      "gòkè": 765,
      "wú": 766,
      "yọ̀": 767,
      "úù": 768,
      "Re": 769,
      "fo": 770,
      "sinmi": 771,
      "òró": 772,
      "ọ̀dọ́": 773,
      "Ọmọ": 774,
      "ag": 775,
      "apá": 776,
      "Abra": 777,
      "òróró": 778,
      "Jeho": 779,
      "Pa": 780,
      "Jẹ́": 781,
      "iwájú": 782,
      "ẹ̀rí": 783,
      "sísun": 784,
      "pátá": 785,
      "lúkú": 786,
      "tani": 787,
      "lúkúlùkù": 788,
      "ẹgbẹ̀": 789,
      "ṣubú": 790,
      "pin": 791,
      "ìjọ": 792,
      "sọ̀kalẹ̀": 793,
      "Me": 794,
      "oṣù": 795,
      "àjà": 796,
      "gàn": 797,
      "dákà": 798,
      "kẹ́tẹ́": 799,
      "lomoni": 800,
      "Solomoni": 801,
      "ìtẹ́": 802,
      "Júù": 803,
      "Ga": 804,
      "owó": 805,
      "nísinsin": 806,
      "ìyá": 807,
      "imu": 808,
      "sà": 809,
      "tẹ̀lé": 810,
      "Láti": 811,
      "díẹ̀": 812,
      "Filisti": 813,
      "èso": 814,
      "ayọ̀": 815,
      "kiri": 816,
      "fàdákà": 817,
      "dẹ": 818,
      "láì": 819,
      "jẹ̀mú": 820,
      "Ne": 821,
      "gíga": 822,
      "gbẹ": 823,
      "rántí": 824,
      "Filistini": 825,
      "ṣo": 826,
      "nìkan": 827,
      "ibẹ̀": 828,
      "ìl": 829,
      "Ọba": 830,
      "májẹ̀mú": 831,
      "méjè": 832,
      "po": 833,
      "sari": 834,
      "Josẹ": 835,
      "Josẹfu": 836,
      "yan": 837,
      "gbá": 838,
      "ne": 839,
      "olúkúlùkù": 840,
      "wẹ̀": 841,
      "ọ̀pọ̀lọpọ̀": 842,
      "gidigidi": 843,
      "ẹranko": 844,
      "ikú": 845,
      "dẹ́": 846,
      "Kò": 847,
      "èlò": 848,
      "alágbára": 849,
      "Báyìí": 850,
      "Fara": 851,
      "yípadà": 852,
      "kiah": 853,
      "Farao": 854,
      "mp": 855,
      "mpili": 856,
      "oko": 857,
      "dani": 858,
      "mẹ́wàá": 859,
      "rọ": 860,
      "sọ́dọ̀": 861,
      "tẹmpili": 862,
      "méjèèjì": 863,
      "kóhun": 864,
      "sún": 865,
      "kàrà": 866,
      "aki": 867,
      "gẹli": 868,
      "Ẹ̀mí": 869,
      "gbọ̀nwọ́": 870,
      "Abi": 871,
      "agbo": 872,
      "pín": 873,
      "ìgbọ̀nwọ́": 874,
      "ṣua": 875,
      "odi": 876,
      "àkọ́": 877,
      "ìgbàgbọ́": 878,
      "hò": 879,
      "ipò": 880,
      "Ka": 881,
      "ìgbè": 882,
      "injù": 883,
      "ìwọ̀n": 884,
      "ọ̀pá": 885,
      "èké": 886,
      "pamọ́": 887,
      "ibo": 888,
      "hamu": 889,
      "gbègbè": 890,
      "ore": 891,
      "láààyè": 892,
      "dídùn": 893,
      "aginjù": 894,
      "Àwa": 895,
      "Isa": 896,
      "ìpín": 897,
      "kẹ̀kẹ́": 898,
      "gùn": 899,
      "búra": 900,
      "ààmì": 901,
      "Tí": 902,
      "ókù": 903,
      "ṣiṣẹ́": 904,
      "du": 905,
      "gé": 906,
      "láéláé": 907,
      "Abrahamu": 908,
      "ájú": 909,
      "ìlà": 910,
      "agbègbè": 911,
      "rékọjá": 912,
      "Ef": 913,
      "mù": 914,
      ").": 915,
      "ọgbọ́n": 916,
      "súnmọ́": 917,
      "fọ̀": 918,
      "ohunkóhun": 919,
      "tòótọ́": 920,
      "báyìí": 921,
      "yá": 922,
      "ìlẹ̀": 923,
      "òye": 924,
      "ọlá": 925,
      "kígbe": 926,
      "Yóò": 927,
      "fọ́": 928,
      "kìn": 929,
      "òyè": 930,
      "ìjòyè": 931,
      "míràn": 932,
      "ana": 933,
      "wù": 934,
      "éṣe": 935,
      "lea": 936,
      "pótí": 937,
      "ari": 938,
      "òru": 939,
      "dájú": 940,
      "jagun": 941,
      "tán": 942,
      "sọtẹ́lẹ̀": 943,
      "olódodo": 944,
      "ìsinmi": 945,
      "ọ̀wọ́": 946,
      "Sí": 947,
      "Ti": 948,
      "we": 949,
      "Aha": 950,
      "lábẹ́": 951,
      "ìyàwó": 952,
      "Ge": 953,
      "dáradára": 954,
      "ṣé": 955,
      "ramu": 956,
      "Am": 957,
      "ali": 958,
      "gọ́": 959,
      "olúwa": 960,
      "àpótí": 961,
      "Joṣua": 962,
      "hu": 963,
      "Wò": 964,
      "márùn": 965,
      "àjàrà": 966,
      "ìmọ́lẹ̀": 967,
      "ìgbèkùn": 968,
      "àjọ": 969,
      "tirẹ̀": 970,
      "ṣè": 971,
      "mini": 972,
      "ìnì": 973,
      "wáìnì": 974,
      "gbí": 975,
      "ìjà": 976,
      "rìíra": 977,
      "àkàrà": 978,
      "ìkó": 979,
      "dán": 980,
      "dojú": 981,
      "ìrí": 982,
      "jah": 983,
      "ère": 984,
      "ṣọ̀": 985,
      "kíyèsi": 986,
      "Moabu": 987,
      "gbẹ́kẹ̀": 988,
      "pèsè": 989,
      "Paulu": 990,
      "wọlé": 991,
      "lérí": 992,
      "ìgbé": 993,
      "ẹrú": 994,
      "angẹli": 995,
      "Jor": 996,
      "jìn": 997,
      "lọ̀": 998,
      "pí": 999,
      "rọ́": 1000,
      "Efra": 1001,
      "Jordani": 1002,
      "àyà": 1003,
      "ẹ̀gbẹ́": 1004,
      "ọ̀tún": 1005,
      "tọ́jú": 1006,
      "ọkọ": 1007,
      "wúrọ̀": 1008,
      "nìí": 1009,
      "Nísinsin": 1010,
      "àádọ́": 1011,
      ",“": 1012,
      "Ja": 1013,
      "je": 1014,
      "ànà": 1015,
      "Kena": 1016,
      "ipa": 1017,
      "òwúrọ̀": 1018,
      "ìyìn": 1019,
      "kórìíra": 1020,
      "mẹ́rin": 1021,
      "ẹgbẹ̀rún": 1022,
      "siah": 1023,
      "jùlọ": 1024,
      "oro": 1025,
      "kùnkùn": 1026,
      "jamini": 1027,
      "hi": 1028,
      "ẹgbà": 1029,
      "Ben": 1030,
      "Èéṣe": 1031,
      "miah": 1032,
      "ràrí": 1033,
      "tùràrí": 1034,
      "ìparun": 1035,
      "tè": 1036,
      "gbàdúrà": 1037,
      "gbẹ́kẹ̀lé": 1038,
      "orin": 1039,
      "èé": 1040,
      "ṣẹ́gun": 1041,
      "Benjamini": 1042,
      "ẹṣin": 1043,
      "Efraimu": 1044,
      "alà": 1045,
      "gú": 1046,
      "lóò": 1047,
      "teru": 1048,
      "òpin": 1049,
      "ẹyẹ": 1050,
      "ọ́njú": 1051,
      "àjèjì": 1052,
      "ìlànà": 1053,
      "Peteru": 1054,
      "pàdé": 1055,
      "Nínú": 1056,
      "000": 1057,
      "Asi": 1058,
      "Ra": 1059,
      "ṣà": 1060,
      "ẹ̀rù": 1061,
      "leki": 1062,
      "aṣi": 1063,
      "òṣù": 1064,
      "ọgbà": 1065,
      "ihò": 1066,
      "àgbò": 1067,
      "igbó": 1068,
      "àrí": 1069,
      "úsù": 1070,
      "fẹ̀": 1071,
      "ọkọ̀": 1072,
      "domu": 1073,
      "gúúsù": 1074,
      "àpá": 1075,
      "Ṣé": 1076,
      "fẹ́ràn": 1077,
      "gó": 1078,
      "ìyanu": 1079,
      "lẹ́nu": 1080,
      "àìmọ́": 1081,
      "tuntun": 1082,
      "Olù": 1083,
      "oore": 1084,
      "sọkún": 1085,
      "ààrùn": 1086,
      "Ṣi": 1087,
      "ìgbàlà": 1088,
      "káà": 1089,
      "méjìlá": 1090,
      "bàjẹ́": 1091,
      "foní": 1092,
      "idẹ": 1093,
      "teli": 1094,
      "raga": 1095,
      "yíká": 1096,
      "Sioni": 1097,
      "fojì": 1098,
      "fonífojì": 1099,
      "lónìí": 1100,
      "ahoro": 1101,
      "tóbi": 1102,
      "kọ̀wé": 1103,
      "Ki": 1104,
      "gbìn": 1105,
      "lógún": 1106,
      "Ọ̀rọ̀": 1107,
      "ibùdó": 1108,
      "Kenaani": 1109,
      "ẹgbàá": 1110,
      "òkùnkùn": 1111,
      "fì": 1112,
      "déé": 1113,
      "pápá": 1114,
      "lòmíràn": 1115,
      "aláìní": 1116,
      "àpáta": 1117,
      "Gẹ́": 1118,
      "lágbára": 1119,
      "kòkò": 1120,
      "Dani": 1121,
      "Joh": 1122,
      "òpó": 1123,
      "ẹlòmíràn": 1124,
      "papọ̀": 1125,
      "ọ̀fẹ́": 1126,
      "ṣẹlẹ̀": 1127,
      "ṣinṣin": 1128,
      "Gẹ́gẹ́": 1129,
      "bùn": 1130,
      "Ṣa": 1131,
      "fúnra": 1132,
      "Jere": 1133,
      "jẹun": 1134,
      "ìpọ́njú": 1135,
      "àríwá": 1136,
      "to": 1137,
      "ji": 1138,
      "rètí": 1139,
      "àgbàgbà": 1140,
      "Mana": 1141,
      "boamu": 1142,
      "Jeremiah": 1143,
      "Mí": 1144,
      "kára": 1145,
      "nípasẹ̀": 1146,
      "Manase": 1147,
      "abẹ́": 1148,
      "fò": 1149,
      "kankan": 1150,
      "Sọ": 1151,
      "àyè": 1152,
      "ìyè": 1153,
      "ààfin": 1154,
      "aláìmọ́": 1155,
      "Hi": 1156,
      "gá": 1157,
      "ọtí": 1158,
      "Jona": 1159,
      "Pẹ̀": 1160,
      "Mímọ́": 1161,
      "Ahi": 1162,
      "ewúr": 1163,
      "fara": 1164,
      "ẹ̀bùn": 1165,
      "péjọ": 1166,
      "ìlẹ̀kùn": 1167,
      "ìríra": 1168,
      "alààyè": 1169,
      "Pẹ̀lú": 1170,
      "ìṣe": 1171,
      "ọkà": 1172,
      "muẹli": 1173,
      "ààbò": 1174,
      "Saamu": 1175,
      "Samuẹli": 1176,
      "sọ́tọ̀": 1177,
      "sàlẹ̀": 1178,
      "Asiria": 1179,
      "asán": 1180,
      "kán": 1181,
      "nù": 1182,
      "kín": 1183,
      "nìún": 1184,
      "jíjẹ": 1185,
      "ewúrẹ́": 1186,
      "gan": 1187,
      "olóò": 1188,
      "òní": 1189,
      "ọgọ́": 1190,
      "lọ́rùn": 1191,
      "lulẹ̀": 1192,
      "kẹ́tẹ́kẹ́tẹ́": 1193,
      "Fún": 1194,
      "wẹ́": 1195,
      "àdé": 1196,
      "pátápátá": 1197,
      "Joabu": 1198,
      "Lọ": 1199,
      "Ohun": 1200,
      "Ọkùnrin": 1201,
      "riah": 1202,
      "fe": 1203,
      "ìlérí": 1204,
      "ìrètí": 1205,
      "parun": 1206,
      "kọlà": 1207,
      "olùṣọ́": 1208,
      "lì": 1209,
      "pọ́n": 1210,
      "ọlọ́run": 1211,
      "gbèrè": 1212,
      "giri": 1213,
      "tìkára": 1214,
      "leadi": 1215,
      "gójì": 1216,
      "Gileadi": 1217,
      "ọlọ́gbọ́n": 1218,
      "dìí": 1219,
      "rànlọ́wọ́": 1220,
      "Baba": 1221,
      "Nípa": 1222,
      "ròyìn": 1223,
      "sálọ": 1224,
      "Hese": 1225,
      "òjò": 1226,
      "ògiri": 1227,
      "lákà": 1228,
      "doni": 1229,
      "Hesekiah": 1230,
      "Ama": 1231,
      "pàá": 1232,
      "ìtì": 1233,
      "Isaaki": 1234,
      "ìyókù": 1235,
      "kẹta": 1236,
      "kìnnìún": 1237,
      "fihàn": 1238,
      "Johanu": 1239,
      "dú": 1240,
      "ìsàlẹ̀": 1241,
      "ọ̀sìn": 1242,
      "tálákà": 1243,
      "Ẹnikẹ́ni": 1244,
      "ìtàn": 1245,
      "múra": 1246,
      "àkọ́bí": 1247,
      "àdúrà": 1248,
      "ọrọ̀": 1249,
      "Edomu": 1250,
      "úra": 1251,
      "bojú": 1252,
      "Ammoni": 1253,
      "lépa": 1254,
      "Sama": 1255,
      "yàrá": 1256,
      "Síbẹ̀": 1257,
      ",’": 1258,
      "irun": 1259,
      "Àfonífojì": 1260,
      "Beti": 1261,
      "àgbàlá": 1262,
      "Samaria": 1263,
      "hìn": 1264,
      "órùn": 1265,
      "ẹ̀kọ́": 1266,
      "balẹ̀": 1267,
      "rora": 1268,
      "Kíyèsi": 1269,
      "Báwo": 1270,
      "ṣáájú": 1271,
      "sẹ́yìn": 1272,
      "nítòótọ́": 1273,
      "gbàgbọ́": 1274,
      "Baali": 1275,
      "ibodè": 1276,
      "álẹ̀": 1277,
      "èrò": 1278,
      "ṣì": 1279,
      "òṣùwọ̀n": 1280,
      "bì": 1281,
      "ìpè": 1282,
      "wàásù": 1283,
      "Ho": 1284,
      "fín": 1285,
      "ẹ̀bi": 1286,
      "parí": 1287,
      "oa": 1288,
      "kọrin": 1289,
      "lejò": 1290,
      "mẹ́fà": 1291,
      "ọ̀dọ́mọ": 1292,
      "ina": 1293,
      "tútù": 1294,
      "ṣoṣo": 1295,
      "dojúkọ": 1296,
      "káàkiri": 1297,
      "aládé": 1298,
      "bùkù": 1299,
      "Mú": 1300,
      "hù": 1301,
      "jo": 1302,
      "àlá": 1303,
      "ìtu": 1304,
      "òdì": 1305,
      "kélì": 1306,
      "ìṣúra": 1307,
      "Jonatani": 1308,
      "réré": 1309,
      "ṣékélì": 1310,
      "wu": 1311,
      "gbàgbé": 1312,
      "gungun": 1313,
      "ojúrere": 1314,
      "ìpàdé": 1315,
      ".“": 1316,
      "újẹ́": 1317,
      "kéde": 1318,
      "lòdì": 1319,
      "fati": 1320,
      "gu": 1321,
      "ssari": 1322,
      "àwo": 1323,
      "ẹ̀ka": 1324,
      "tiwọn": 1325,
      "kìlọ̀": 1326,
      "seri": 1327,
      "mani": 1328,
      "bó": 1329,
      "okùn": 1330,
      "súr": 1331,
      "àbí": 1332,
      "àgbèrè": 1333,
      "ìhìn": 1334,
      "Asa": 1335,
      "ìta": 1336,
      "ẹkún": 1337,
      "keje": 1338,
      "ìhìnrere": 1339,
      "Esa": 1340,
      "fetí": 1341,
      "àlejò": 1342,
      "sìkò": 1343,
      "búlẹ̀": 1344,
      "Jehoi": 1345,
      "há": 1346,
      "ìrékọjá": 1347,
      "ààlà": 1348,
      "líle": 1349,
      "dùbúlẹ̀": 1350,
      "tẹrí": 1351,
      "?’": 1352,
      "La": 1353,
      "egungun": 1354,
      "àmú": 1355,
      "ìbùkún": 1356,
      "ọ̀gb": 1357,
      "Amo": 1358,
      "múlẹ̀": 1359,
      "Bala": 1360,
      "gígùn": 1361,
      "Gibe": 1362,
      "Esau": 1363,
      "irin": 1364,
      "oríko": 1365,
      "dàgbà": 1366,
      "salo": 1367,
      "sáré": 1368,
      "Absalo": 1369,
      "Elijah": 1370,
      "Absalomu": 1371,
      "Kì": 1372,
      "sé": 1373,
      "Eliṣa": 1374,
      "ibùgbé": 1375,
      "Nebu": 1376,
      "gọ̀": 1377,
      "ìsìn": 1378,
      "ọ̀sán": 1379,
      "dari": 1380,
      "ṣègbé": 1381,
      "jìnnà": 1382,
      "ìtìjú": 1383,
      "dne": 1384,
      "ìrànlọ́wọ́": 1385,
      "ẹgbẹ́": 1386,
      "ẹ̀gàn": 1387,
      "kùtù": 1388,
      "ibojì": 1389,
      "urú": 1390,
      "rúurú": 1391,
      "keré": 1392,
      "rìrì": 1393,
      "dẹ́ṣẹ̀": 1394,
      "tèmi": 1395,
      "ṣú": 1396,
      "títa": 1397,
      "ìyẹ̀": 1398,
      "gbóná": 1399,
      "Wọ̀n": 1400,
      "koríko": 1401,
      "ẹrù": 1402,
      "ẹ̀dá": 1403,
      "ọ̀rẹ́": 1404,
      "dààmú": 1405,
      "arábìnrin": 1406,
      "kékeré": 1407,
      "ìṣọ́": 1408,
      "ṣíṣe": 1409,
      "Reu": 1410,
      "Wọ̀nyí": 1411,
      "Ar": 1412,
      "ati": 1413,
      "elé": 1414,
      "ìgb": 1415,
      "dákẹ́": 1416,
      "kọlu": 1417,
      "Jero": 1418,
      "ahọ́n": 1419,
      "àádọ́ta": 1420,
      "An": 1421,
      "Pi": 1422,
      "dẹ̀": 1423,
      "ìrìn": 1424,
      "onírúurú": 1425,
      "meleki": 1426,
      "Jeroboamu": 1427,
      "Fi": 1428,
      "bàn": 1429,
      "àsìkò": 1430,
      "àìní": 1431,
      "tòsí": 1432,
      "bànújẹ́": 1433,
      "yára": 1434,
      "ìrà": 1435,
      "ìbẹ̀rù": 1436,
      "ṣò": 1437,
      "tílà": 1438,
      "wárìrì": 1439,
      "mọ́ra": 1440,
      "fẹ́fẹ́": 1441,
      "Mika": 1442,
      "Tàbí": 1443,
      "ètù": 1444,
      "aláìkọlà": 1445,
      "fìtílà": 1446,
      "ipá": 1447,
      "ìle": 1448,
      "ìwo": 1449,
      "ìbànújẹ́": 1450,
      "anani": 1451,
      "korò": 1452,
      "borí": 1453,
      "pu": 1454,
      "èkejì": 1455,
      "òjì": 1456,
      "tẹríba": 1457,
      "afẹ́fẹ́": 1458,
      "fèrè": 1459,
      "Ahabu": 1460,
      "ìkógun": 1461,
      "ètùtù": 1462,
      "ìkọ̀": 1463,
      "ọ̀rá": 1464,
      "gbàlà": 1465,
      "lẹ́ẹ̀": 1466,
      "bojútó": 1467,
      "apo": 1468,
      "níhìn": 1469,
      "Nítòótọ́": 1470,
      "moti": 1471,
      "tókù": 1472,
      "bùú": 1473,
      "tẹ̀síwájú": 1474,
      "Gadi": 1475,
      "),": 1476,
      "gà": 1477,
      "ogójì": 1478,
      "kọjú": 1479,
      "kálẹ̀": 1480,
      "Ló": 1481,
      "ìrántí": 1482,
      "mímu": 1483,
      "kadne": 1484,
      "oníṣẹ́": 1485,
      "funfun": 1486,
      "fúnrarẹ̀": 1487,
      "ìtumọ̀": 1488,
      "Nebukadne": 1489,
      "Nebukadnessari": 1490,
      "fọ": 1491,
      "steli": 1492,
      "òmù": 1493,
      "ṣàánú": 1494,
      "rayé": 1495,
      "jẹ́rìí": 1496,
      "ayérayé": 1497,
      "súre": 1498,
      "Es": 1499,
      "jogún": 1500,
      "wẹ": 1501,
      "àsè": 1502,
      "èmí": 1503,
      "ìgbo": 1504,
      "ìrora": 1505,
      "òrù": 1506,
      "dárí": 1507,
      "rúbù": 1508,
      "àkóso": 1509,
      "ṣafati": 1510,
      "Jehoṣafati": 1511,
      "láìsí": 1512,
      "òmùgọ̀": 1513,
      "Aṣ": 1514,
      "Ara": 1515,
      "àgà": 1516,
      "beni": 1517,
      "fẹ̀ẹ́": 1518,
      "dàn": 1519,
      "fè": 1520,
      "fọ́n": 1521,
      "loni": 1522,
      "ìt": 1523,
      "ọpẹ́": 1524,
      "kọlù": 1525,
      "pọ̀lọpọ̀": 1526,
      "ìṣò": 1527,
      "àjò": 1528,
      "olóòtítọ́": 1529,
      "Amori": 1530,
      "ìyẹ̀fun": 1531,
      "Reubeni": 1532,
      "Ilẹ̀": 1533,
      "ban": 1534,
      "yó": 1535,
      "àt": 1536,
      "úgbò": 1537,
      "ẹ̀tàn": 1538,
      "ìyẹ́": 1539,
      "Jehu": 1540,
      "ṣẹ́kù": 1541,
      "aládù": 1542,
      "Jobu": 1543,
      "aládùúgbò": 1544,
      "igbe": 1545,
      "yò": 1546,
      "àwò": 1547,
      "ọ̀gá": 1548,
      "ríran": 1549,
      "gbọ́ràn": 1550,
      "Daniẹli": 1551,
      "aposteli": 1552,
      "Elea": 1553,
      "Ojú": 1554,
      "bíye": 1555,
      "tali": 1556,
      "mẹ́rìn": 1557,
      "Siria": 1558,
      "olùfẹ́": 1559,
      "Aṣe": 1560,
      "opó": 1561,
      "pan": 1562,
      "èwe": 1563,
      "ùku": 1564,
      "ǹjẹ́": 1565,
      "ọgbọ̀n": 1566,
      "nira": 1567,
      "lásán": 1568,
      "Níbo": 1569,
      "kùùku": 1570,
      "kérúbù": 1571,
      "wólẹ̀": 1572,
      "lòpọ̀": 1573,
      "túú": 1574,
      "dànù": 1575,
      "kùùkuu": 1576,
      "igun": 1577,
      "àgbé": 1578,
      "èṣù": 1579,
      "ìtẹ̀": 1580,
      "ìsinsin": 1581,
      "ìkòkò": 1582,
      "ẹ̀jẹ́": 1583,
      "baálẹ̀": 1584,
      "lélógún": 1585,
      "lógun": 1586,
      "kai": 1587,
      "sánmọ̀": 1588,
      "farahàn": 1589,
      "yún": 1590,
      "ọ̀kọ̀": 1591,
      "dípò": 1592,
      "tìrẹ": 1593,
      "túbú": 1594,
      "ìda": 1595,
      "òsì": 1596,
      "ọ̀fọ̀": 1597,
      "lélẹ̀": 1598,
      "lẹ́gbẹ̀": 1599,
      "ọlọ́lá": 1600,
      "ìgbéraga": 1601,
      "Aramu": 1602,
      "Go": 1603,
      "Iṣ": 1604,
      "Orúkọ": 1605,
      "nìy": 1606,
      "yọ́": 1607,
      "ọmọdé": 1608,
      "gbéraga": 1609,
      "dàá": 1610,
      "ẹlẹ́rìí": 1611,
      "ṣọ̀fọ̀": 1612,
      "ọ̀dọ́mọkùnrin": 1613,
      "hálà": 1614,
      "awọ": 1615,
      "abo": 1616,
      "bàá": 1617,
      "erù": 1618,
      "yẹ̀": 1619,
      "Ènìyàn": 1620,
      "ìrọ̀": 1621,
      "òǹ": 1622,
      "ṣó": 1623,
      "níwọ̀n": 1624,
      "wádìí": 1625,
      "ọ́nà": 1626,
      "létí": 1627,
      "lera": 1628,
      "dínlógún": 1629,
      "panṣá": 1630,
      "nìyìí": 1631,
      "erùpẹ̀": 1632,
      "Fari": 1633,
      "Gbọ́": 1634,
      "dara": 1635,
      "ètè": 1636,
      "ìrú": 1637,
      "ìbò": 1638,
      "ìròyìn": 1639,
      "ẹ̀wọ̀n": 1640,
      "gban": 1641,
      "láṣẹ": 1642,
      "Farisi": 1643,
      "broni": 1644,
      "forí": 1645,
      "wèrè": 1646,
      "àsọtẹ́lẹ̀": 1647,
      "ékè": 1648,
      "ǹde": 1649,
      "ọ̀kọ̀ọ̀kan": 1650,
      "Níbẹ̀": 1651,
      "Jeri": 1652,
      "darí": 1653,
      "ruku": 1654,
      "kẹ́gàn": 1655,
      "láradá": 1656,
      "Hebroni": 1657,
      "iyebíye": 1658,
      "Gali": 1659,
      "àkọ́kọ́": 1660,
      "ṣọ̀tẹ̀": 1661,
      "ìletò": 1662,
      "àwòrán": 1663,
      "panṣágà": 1664,
      "gbangba": 1665,
      "Ègbé": 1666,
      "òwe": 1667,
      "wọsánmọ̀": 1668,
      "àtijọ́": 1669,
      "bani": 1670,
      "léèrè": 1671,
      "wàhálà": 1672,
      "sia": 1673,
      "bolẹ̀": 1674,
      "kéékè": 1675,
      "kòóso": 1676,
      "pinnu": 1677,
      "èkéé": 1678,
      "kéékèèkéé": 1679,
      "lla": 1680,
      "ìbú": 1681,
      "ìkùùkuu": 1682,
      "ẹ́dẹ́": 1683,
      "kíá": 1684,
      "alákòóso": 1685,
      "ojúmọ́": 1686,
      "mẹ́tà": 1687,
      "gbẹ̀san": 1688,
      "Galili": 1689,
      "Ana": 1690,
      "ewé": 1691,
      "sára": 1692,
      "àwọsánmọ̀": 1693,
      "lẹ́bi": 1694,
      "Beteli": 1695,
      "Abramu": 1696,
      "ọ̀gbọ̀": 1697,
      "ìdajì": 1698,
      "pi": 1699,
      "ìdè": 1700,
      "ìwẹ̀": 1701,
      "ẹrẹ": 1702,
      "ẹ̀bá": 1703,
      "ẹ̀ẹ́dẹ́": 1704,
      "gbin": 1705,
      "láìní": 1706,
      "lọ́nà": 1707,
      "lébùú": 1708,
      "kọ́ni": 1709,
      "kemu": 1710,
      "teri": 1711,
      "ọgọ́rùn": 1712,
      "yòókù": 1713,
      "Eleasari": 1714,
      "àgbélébùú": 1715,
      "Wá": 1716,
      "akọ̀wé": 1717,
      "jé": 1718,
      "ìjì": 1719,
      "ìkà": 1720,
      "òórùn": 1721,
      "Ọjọ́": 1722,
      "Ọkàn": 1723,
      "ẹ̀wù": 1724,
      "dadi": 1725,
      "kànga": 1726,
      "dìdì": 1727,
      "ibùsùn": 1728,
      "foríbalẹ̀": 1729,
      "bè": 1730,
      "bìl": 1731,
      "jọ̀wọ́": 1732,
      "pàgọ́": 1733,
      "ṣìí": 1734,
      "ọrùn": 1735,
      "ìyànjú": 1736,
      "pẹ̀tẹ́lẹ̀": 1737,
      "jásí": 1738,
      "kìkì": 1739,
      "kedari": 1740,
      "ìjìyà": 1741,
      "ìpìlẹ̀": 1742,
      "àjàgà": 1743,
      "ìhá": 1744,
      "bìlì": 1745,
      "oli": 1746,
      "oyin": 1747,
      "àwọ̀": 1748,
      "èdìdì": 1749,
      "ìbúra": 1750,
      "kíyè": 1751,
      "balógun": 1752,
      "diani": 1753,
      "kẹrin": 1754,
      "Midiani": 1755,
      "àjàkálẹ̀": 1756,
      "jagunjagun": 1757,
      "gbígbóná": 1758,
      ".)": 1759,
      "alẹ́": 1760,
      "amọ̀": 1761,
      "áájú": 1762,
      "ọfà": 1763,
      "rara": 1764,
      "bali": 1765,
      "dea": 1766,
      "kúfẹ̀ẹ́": 1767,
      "lẹ́bàá": 1768,
      "gbọ́rọ̀": 1769,
      "tábìlì": 1770,
      "àìṣe": 1771,
      "Leban": 1772,
      "Reho": 1773,
      "ariwo": 1774,
      "joojúmọ́": 1775,
      "bóyá": 1776,
      "Lebanoni": 1777,
      "Hu": 1778,
      "àlà": 1779,
      "àmù": 1780,
      "ẹjọ́": 1781,
      "ọ̀wọ́n": 1782,
      "Obìnrin": 1783,
      "ebi": 1784,
      "innu": 1785,
      "kòtò": 1786,
      "Jese": 1787,
      "ronú": 1788,
      "mari": 1789,
      "Bar": 1790,
      "ìdámẹ́wàá": 1791,
      "Ṣekemu": 1792,
      "dógún": 1793,
      "jíjìn": 1794,
      "Sede": 1795,
      "ìrọ̀lẹ́": 1796,
      "Ará": 1797,
      "eé": 1798,
      "isà": 1799,
      "mòye": 1800,
      "dabu": 1801,
      "ààbọ̀": 1802,
      "kéré": 1803,
      "pẹẹrẹ": 1804,
      "lòó": 1805,
      "fani": 1806,
      "kẹyìn": 1807,
      "Abimeleki": 1808,
      "aṣiwèrè": 1809,
      "wẹ́wẹ́": 1810,
      "pàápàá": 1811,
      "ìràwọ̀": 1812,
      "ìṣòótọ́": 1813,
      "Su": 1814,
      "ada": 1815,
      "adé": 1816,
      "ìmú": 1817,
      "ẹ̀gbọ́n": 1818,
      "lọ́kàn": 1819,
      "ìnà": 1820,
      "ìpó": 1821,
      "latu": 1822,
      "Simoni": 1823,
      "olùgbé": 1824,
      "olódi": 1825,
      "ìfẹ́kúfẹ̀ẹ́": 1826,
      "ìbátan": 1827,
      "mìnira": 1828,
      "neri": 1829,
      "pípa": 1830,
      "Pilatu": 1831,
      "òrùka": 1832,
      "Sedekiah": 1833,
      "òde": 1834,
      "ẹlẹ": 1835,
      "ẹ̀bẹ̀": 1836,
      "bákan": 1837,
      "lóyún": 1838,
      "rusi": 1839,
      "gbèrò": 1840,
      "Balaamu": 1841,
      "Háà": 1842,
      "ijù": 1843,
      "rde": 1844,
      "té": 1845,
      "uṣi": 1846,
      "àṣà": 1847,
      "àbùkù": 1848,
      "ọ̀ràn": 1849,
      "jẹ́wọ́": 1850,
      "úrù": 1851,
      "pẹ̀kun": 1852,
      "díá": 1853,
      "aláṣẹ": 1854,
      "Morde": 1855,
      "Josiah": 1856,
      "aṣani": 1857,
      "yàwó": 1858,
      "nìyí": 1859,
      "Hebe": 1860,
      "Jeriko": 1861,
      "Mordekai": 1862,
      "To": 1863,
      "mẹ́ẹ̀": 1864,
      "òmìnira": 1865,
      "ṣoni": 1866,
      "ọ̀kẹ́": 1867,
      "ọ̀ṣọ́": 1868,
      "lọ́gbọ̀n": 1869,
      "jẹ́ẹ́": 1870,
      "rárá": 1871,
      "mọ́kàn": 1872,
      "aha": 1873,
      "kìkí": 1874,
      "ìránṣẹ́bìnrin": 1875,
      "Abneri": 1876,
      "ẹlẹ́ṣẹ̀": 1877,
      "sùúrù": 1878,
      "àádọ́rin": 1879,
      "déédéé": 1880,
      "ìrìnàjò": 1881,
      "mẹ́ẹ̀ẹ́": 1882,
      "ibí": 1883,
      "Ìbùkún": 1884,
      "àbá": 1885,
      "àwẹ̀": 1886,
      "dàpọ̀": 1887,
      "deoni": 1888,
      "bulu": 1889,
      "túnṣe": 1890,
      "sálà": 1891,
      "Gideoni": 1892,
      "ọlọ́rọ̀": 1893,
      "Labani": 1894,
      "àtìpó": 1895,
      "ìrúbọ": 1896,
      "àmùrè": 1897,
      "Te": 1898,
      "sku": 1899,
      "àṣá": 1900,
      "Ẹnu": 1901,
      "kíbi": 1902,
      "Dama": 1903,
      "onídàá": 1904,
      "Hero": 1905,
      "akimu": 1906,
      "ìkórè": 1907,
      "Angẹli": 1908,
      "Damasku": 1909,
      "onídàájọ́": 1910,
      "Baṣani": 1911,
      "Gbé": 1912,
      "Noa": 1913,
      "hó": 1914,
      "jìyà": 1915,
      "àpẹẹrẹ": 1916,
      "ẹ̀san": 1917,
      "rah": 1918,
      "ànìyàn": 1919,
      "bodè": 1920,
      "kari": 1921,
      "mélòó": 1922,
      "ìpinnu": 1923,
      "gbógun": 1924,
      "Maa": 1925,
      "Mera": 1926,
      "Tire": 1927,
      "dúpẹ́": 1928,
      "hùwà": 1929,
      "òjìji": 1930,
      "àìṣedéédéé": 1931,
      "Hanani": 1932,
      "Ni": 1933,
      "Rán": 1934,
      "Sì": 1935,
      "arú": 1936,
      "ago": 1937,
      "iri": 1938,
      "soni": 1939,
      "tọkàn": 1940,
      "ìbí": 1941,
      "ìsun": 1942,
      "ìtọ́jú": 1943,
      "ńdíá": 1944,
      "láre": 1945,
      "wọ́gbà": 1946,
      "lókè": 1947,
      "ọnu": 1948,
      "ìhò": 1949,
      "ológun": 1950,
      "fọ́jú": 1951,
      "Ṣime": 1952,
      "ẹ̀ẹ́dẹ́gbẹ̀": 1953,
      "olifi": 1954,
      "!’": 1955,
      "Ko": 1956,
      "Sara": 1957,
      "bba": 1958,
      "pìwà": 1959,
      "Àlùfáà": 1960,
      "ègún": 1961,
      "ìrì": 1962,
      "ṣọ": 1963,
      "títóbi": 1964,
      "ọ̀rún": 1965,
      "kọ́kọ́": 1966,
      "yọrí": 1967,
      "Mis": 1968,
      "ìkọ̀kọ̀": 1969,
      "lẹ́ẹ̀kan": 1970,
      "fèrí": 1971,
      "ìhòhò": 1972,
      "pìwàdà": 1973,
      "Eu": 1974,
      "Us": 1975,
      "ìgbẹ́kẹ̀lé": 1976,
      "ìdààmú": 1977,
      "Ṣu": 1978,
      "rẹ̀lẹ̀": 1979,
      "kíkan": 1980,
      "orísun": 1981,
      "kọsílẹ̀": 1982,
      "tẹ́tí": 1983,
      "maeli": 1984,
      "àìsàn": 1985,
      "bàtà": 1986,
      "Ọ̀gá": 1987,
      "Seru": 1988,
      "Sebulu": 1989,
      "ìmọ̀ràn": 1990,
      "ohùnréré": 1991,
      "kòkòrò": 1992,
      "Hiti": 1993,
      "ìhámọ́ra": 1994,
      "Dì": 1995,
      "Ela": 1996,
      "Nah": 1997,
      "Sin": 1998,
      "mọ̀nà": 1999,
      "Àmí": 2000,
      "òmíràn": 2001,
      "ẹwà": 2002,
      "rẹ̀ẹ̀": 2003,
      "lógo": 2004,
      "reti": 2005,
      "ìjìn": 2006,
      "gbọrọ": 2007,
      "dọ́gbọ̀n": 2008,
      "dójú": 2009,
      "ẹlẹ́yà": 2010,
      "ayaba": 2011,
      "Dìde": 2012,
      "Àmín": 2013,
      "Ai": 2014,
      "As": 2015,
      "ori": 2016,
      "ìkẹyìn": 2017,
      "ṣán": 2018,
      "ẹja": 2019,
      "ẹ̀gún": 2020,
      "ẹ̀sùn": 2021,
      "dájọ́": 2022,
      "kasẹ": 2023,
      "mẹ́rẹ̀ẹ̀": 2024,
      "ọlọ́dún": 2025,
      "Maria": 2026,
      "Naf": 2027,
      "pípẹ́": 2028,
      "Gibeah": 2029,
      "Iṣmaeli": 2030,
      "fọwọ́": 2031,
      "keli": 2032,
      "noni": 2033,
      "àṣe": 2034,
      "àyíká": 2035,
      "ìre": 2036,
      "ìdúró": 2037,
      "ẹgbọrọ": 2038,
      "ine": 2039,
      "kíkún": 2040,
      "kíkorò": 2041,
      "reeli": 2042,
      "doku": 2043,
      "Sam": 2044,
      "Sadoku": 2045,
      "Bee": 2046,
      "ẹnìkejì": 2047,
      "ìbáwí": 2048,
      "òpópó": 2049,
      "Esteri": 2050,
      "Rehoboamu": 2051,
      "ẹlẹgbẹ́": 2052,
      "àṣálẹ́": 2053,
      "mẹ́rẹ̀ẹ̀rin": 2054,
      "oo": 2055,
      "ìwú": 2056,
      "ṣeba": 2057,
      "para": 2058,
      "biri": 2059,
      "kariah": 2060,
      "Sime": 2061,
      "ọ̀pọ̀tọ́": 2062,
      "ẹnìkọ̀ọ̀kan": 2063,
      "ìbákasẹ": 2064,
      "fura": 2065,
      "wúńdíá": 2066,
      "Isaiah": 2067,
      "gbígbẹ": 2068,
      "Jehoiada": 2069,
      "kùtùkùtù": 2070,
      "ìgboyà": 2071,
      "Herodu": 2072,
      "Naftali": 2073,
      "Simeoni": 2074,
      ",‘": 2075,
      "12": 2076,
      "Bẹ": 2077,
      "eyín": 2078,
      "fù": 2079,
      "fọn": 2080,
      "hẹ": 2081,
      "ṣògo": 2082,
      "ẹ̀tọ́": 2083,
      "tilẹ": 2084,
      "ùnú": 2085,
      "ìyọnu": 2086,
      "runú": 2087,
      "mati": 2088,
      "àárẹ̀": 2089,
      "yàtọ̀": 2090,
      "ìṣáájú": 2091,
      "tẹ̀dó": 2092,
      "olùtọ́jú": 2093,
      "Sera": 2094,
      "Sekariah": 2095,
      "Hamani": 2096,
      "ìtara": 2097,
      "Heberu": 2098,
      "Eufura": 2099,
      "Bẹtilẹ": 2100,
      "hẹmu": 2101,
      "Eufurate": 2102,
      "Bẹtilẹhẹmu": 2103,
      "Iye": 2104,
      "gẹ̀": 2105,
      "àrá": 2106,
      "àṣí": 2107,
      "ìbẹ̀rẹ̀": 2108,
      "ìrunú": 2109,
      "ọgu": 2110,
      "gbilẹ̀": 2111,
      "síta": 2112,
      "Níwọ́n": 2113,
      "kùnà": 2114,
      "kórè": 2115,
      "alábojútó": 2116,
      "kéyìí": 2117,
      "rínwó": 2118,
      "ìpẹ́": 2119,
      "akọni": 2120,
      "olókùn": 2121,
      "agọgu": 2122,
      "yálà": 2123,
      "Sebuluni": 2124,
      "Sinagọgu": 2125,
      "30": 2126,
      "De": 2127,
      "El": 2128,
      "Inú": 2129,
      "usi": 2130,
      "àtẹ́": 2131,
      "ìró": 2132,
      "sín": 2133,
      "wákà": 2134,
      "èyíkéyìí": 2135,
      "jẹ̀bi": 2136,
      "túmọ̀": 2137,
      "Ṣema": 2138,
      "Kar": 2139,
      "ọláńlá": 2140,
      "Rakeli": 2141,
      "Amaleki": 2142,
      "Gibeoni": 2143,
      "ṣòwò": 2144,
      "pupa": 2145,
      "dáríjì": 2146,
      "wákàtí": 2147,
      "Asari": 2148,
      "ajá": 2149,
      "ejò": 2150,
      "pọn": 2151,
      "àlù": 2152,
      "àkọsílẹ̀": 2153,
      "ánú": 2154,
      "liah": 2155,
      "resi": 2156,
      "ọnà": 2157,
      "aláìgbọ́n": 2158,
      "dòdó": 2159,
      "olóòórùn": 2160,
      "Asariah": 2161,
      "Koh": 2162,
      "Ri": 2163,
      "búrò": 2164,
      "eré": 2165,
      "fá": 2166,
      "fojú": 2167,
      "àdà": 2168,
      "ìfi": 2169,
      "ìṣẹ́gun": 2170,
      "ẹ̀ẹ̀": 2171,
      "ọ̀tẹ̀": 2172,
      "nilára": 2173,
      "miti": 2174,
      "wàrà": 2175,
      "Jes": 2176,
      "tàkì": 2177,
      "gali": 2178,
      "Ọ̀dọ́": 2179,
      "Hadadi": 2180,
      "Gil": 2181,
      "ẹlẹ́ṣin": 2182,
      "pàtàkì": 2183,
      "ìtẹ́wọ́gbà": 2184,
      "arúgbó": 2185,
      "ìjìnlẹ̀": 2186,
      "Samsoni": 2187,
      "Kohati": 2188,
      "apa": 2189,
      "lkiah": 2190,
      "àwọ̀n": 2191,
      "òdòdó": 2192,
      "níbí": 2193,
      "lọ́pọ̀lọpọ̀": 2194,
      "lógójì": 2195,
      "biah": 2196,
      "hasi": 2197,
      "bedi": 2198,
      "ṣai": 2199,
      "fodu": 2200,
      "jijì": 2201,
      "kánkán": 2202,
      "àbáwọlé": 2203,
      "Mispa": 2204,
      "àlùkò": 2205,
      "Jesreeli": 2206,
      "Orí": 2207,
      "asà": 2208,
      "efodu": 2209,
      "isi": 2210,
      "pohùnréré": 2211,
      "Ìlú": 2212,
      "Ìdí": 2213,
      "ìṣẹ́": 2214,
      "ọrun": 2215,
      "ọmú": 2216,
      "dáwọ́": 2217,
      "èjìká": 2218,
      "Bákan": 2219,
      "irúgbìn": 2220,
      "kínní": 2221,
      "fetísílẹ̀": 2222,
      "kíyèsí": 2223,
      "Ṣimei": 2224,
      "Kó": 2225,
      "Kuṣi": 2226,
      "no": 2227,
      "àbúrò": 2228,
      "ìgbọ́ràn": 2229,
      "ǹtì": 2230,
      "ǹgbò": 2231,
      "Ṣo": 2232,
      "bímọ": 2233,
      "léwu": 2234,
      "dia": 2235,
      "rimu": 2236,
      "lẹ́ǹtì": 2237,
      "boni": 2238,
      "yìnyín": 2239,
      "bọmi": 2240,
      "aṣa": 2241,
      "ìhín": 2242,
      "Ọ̀kan": 2243,
      "Máa": 2244,
      "ṣèlérí": 2245,
      "lọ̀tẹ̀": 2246,
      "pípé": 2247,
      "Aṣeri": 2248,
      "eérú": 2249,
      "dahoro": 2250,
      "ilà": 2251,
      "mó": 2252,
      "olè": 2253,
      "tti": 2254,
      "Èmí": 2255,
      "Ìgbà": 2256,
      "Ìránṣẹ́": 2257,
      "àfi": 2258,
      "ìka": 2259,
      "ìrò": 2260,
      "ọ̀dún": 2261,
      "ọ̀tọ̀": 2262,
      "lábùkù": 2263,
      "bamiti": 2264,
      "mímú": 2265,
      "tamu": 2266,
      "retí": 2267,
      "pákó": 2268,
      "tálẹ́ǹtì": 2269,
      "Judea": 2270,
      "naiah": 2271,
      "Benaiah": 2272,
      "Sidoni": 2273,
      "Peresi": 2274,
      "meri": 2275,
      "gbádùn": 2276,
      "dẹ́rù": 2277,
      "Ahasi": 2278,
      "Ger": 2279,
      "tètè": 2280,
      "èérí": 2281,
      "Olùgbàlà": 2282,
      "káàánú": 2283,
      "Amasiah": 2284,
      "ìgbìmọ̀": 2285,
      "bamitiisi": 2286,
      "Ad": 2287,
      "Dájú": 2288,
      "Irú": 2289,
      "ge": 2290,
      "llu": 2291,
      "pànìyàn": 2292,
      "sẹ́": 2293,
      "àpò": 2294,
      "ọlọ̀tẹ̀": 2295,
      "ẹ̀kún": 2296,
      "bati": 2297,
      "Jebu": 2298,
      "rekè": 2299,
      "kúkú": 2300,
      "kérekè": 2301,
      "Kín": 2302,
      "rékérekè": 2303,
      "àjọ̀dún": 2304,
      "Filipi": 2305,
      "Natani": 2306,
      "Isakari": 2307,
      "Ahasiah": 2308,
      "Kiria": 2309,
      "ìtànná": 2310,
      "lẹ́gbẹ̀ẹ́": 2311,
      "àṣírí": 2312,
      "Dájúdájú": 2313,
      "Jebusi": 2314,
      "Ari": 2315,
      "Adoni": 2316,
      "Bi": 2317,
      "hí": 2318,
      "ìwò": 2319,
      "ọgbẹ́": 2320,
      "ẹ̀ṣọ́": 2321,
      "ọ̀la": 2322,
      "lọ́gọ́": 2323,
      "bẹ̀bẹ̀": 2324,
      "kúgbà": 2325,
      "ìdáhùn": 2326,
      "jíǹde": 2327,
      "yànfẹ́": 2328,
      "ìbámu": 2329,
      "Sodomu": 2330,
      "ìpakà": 2331,
      "ìwọ̀nyí": 2332,
      "dájúdájú": 2333,
      "elése": 2334,
      "dójútì": 2335,
      "Dí": 2336,
      "Mah": 2337,
      "afọ́jú": 2338,
      "gò": 2339,
      "han": 2340,
      "honi": 2341,
      "ibú": 2342,
      "èéṣe": 2343,
      "ùrù": 2344,
      "tiyín": 2345,
      "rea": 2346,
      "aláró": 2347,
      "mẹ́jọ": 2348,
      "akọrin": 2349,
      "oníṣòwò": 2350,
      "olùkọ́": 2351,
      "dùùrù": 2352,
      "Ọ̀pọ̀lọpọ̀": 2353,
      "wúwo": 2354,
      "èémí": 2355,
      "èéfín": 2356,
      "Ṣilo": 2357,
      "péjọpọ̀": 2358,
      "Balaki": 2359,
      "àìnípẹ̀kun": 2360,
      "túútúú": 2361,
      "ìtẹ̀bọ̀": 2362,
      "ìwúkàrà": 2363,
      "Kọ": 2364,
      "Sina": 2365,
      "agbéraga": 2366,
      "ìf": 2367,
      "Ọwọ́": 2368,
      "ọdẹ": 2369,
      "ẹ̀tẹ̀": 2370,
      "gbìyànjú": 2371,
      "sísọ": 2372,
      "deṣi": 2373,
      "kèfèrí": 2374,
      "lebu": 2375,
      "alábá": 2376,
      "jùmọ̀": 2377,
      "kẹfà": 2378,
      "beka": 2379,
      "Hamati": 2380,
      "Per": 2381,
      "ṣọ́ra": 2382,
      "Kalebu": 2383,
      "òdìkejì": 2384,
      "daran": 2385,
      "Gilgali": 2386,
      "Ada": 2387,
      "Di": 2388,
      "Jọ̀wọ́": 2389,
      "Li": 2390,
      "Ohùn": 2391,
      "Ro": 2392,
      "Uriah": 2393,
      "eṣú": 2394,
      "eruku": 2395,
      "hà": 2396,
      "igba": 2397,
      "owú": 2398,
      "Àlàáfíà": 2399,
      "àyànfẹ́": 2400,
      "ṣọ́nà": 2401,
      "ṣìnà": 2402,
      "oríṣìí": 2403,
      "júmọ́": 2404,
      "diah": 2405,
      "karùn": 2406,
      "kùṣù": 2407,
      "dìtẹ̀": 2408,
      "Judasi": 2409,
      "Beni": 2410,
      "jóná": 2411,
      "Gati": 2412,
      "eléyìí": 2413,
      "fèrèsé": 2414,
      "Aṣerah": 2415,
      "òǹgbẹ": 2416,
      "Merari": 2417,
      "Rántí": 2418,
      "Ṣemaiah": 2419,
      "dẹ́rùbà": 2420,
      "Sinai": 2421,
      "Lóò": 2422,
      "Ru": 2423,
      "eseri": 2424,
      "mri": 2425,
      "ojoojúmọ́": 2426,
      "ràá": 2427,
      "gbìmọ̀": 2428,
      "nibí": 2429,
      "rẹwà": 2430,
      "dágún": 2431,
      "wàláà": 2432,
      "kọsẹ̀": 2433,
      "mọ̀ràn": 2434,
      "ìṣòdodo": 2435,
      "méjìlé": 2436,
      "aláìlera": 2437,
      "Heṣ": 2438,
      "kẹrìn": 2439,
      "Seiri": 2440,
      "gbòǹgbò": 2441,
      "Rebeka": 2442,
      "wẹ̀sì": 2443,
      "ìgbèrí": 2444,
      "Olùkọ́": 2445,
      "erékùṣù": 2446,
      "àdàbà": 2447,
      "irọ́": 2448,
      "Ògo": 2449,
      "àfonífojì": 2450,
      "áàbò": 2451,
      "lóru": 2452,
      "úró": 2453,
      "masi": 2454,
      "Ọ̀pọ̀": 2455,
      "Ṣeba": 2456,
      "ẹnìkankan": 2457,
      "ipasẹ̀": 2458,
      "òṣùpá": 2459,
      "déédé": 2460,
      "Jehoiakimu": 2461,
      "ọ̀gbun": 2462,
      "kíákíá": 2463,
      "ahasi": 2464,
      "Gerṣoni": 2465,
      "Heṣboni": 2466,
      "ìgbèríko": 2467,
      "50": 2468,
      "Ak": 2469,
      "Boa": 2470,
      "Olórí": 2471,
      "dáàbò": 2472,
      "he": 2473,
      "oti": 2474,
      "rle": 2475,
      "ìlọ́": 2476,
      "sípò": 2477,
      "rẹ̀wẹ̀sì": 2478,
      "barle": 2479,
      "lọ́jọ́": 2480,
      "sọnù": 2481,
      "arani": 2482,
      "tafà": 2483,
      "ààrọ̀": 2484,
      "jọjọ": 2485,
      "aṣálẹ̀": 2486,
      "besi": 2487,
      "Haga": 2488,
      "Jehoramu": 2489,
      "dojúbolẹ̀": 2490,
      "ìgbéyàwó": 2491,
      "Rama": 2492,
      "Lọti": 2493,
      "llamu": 2494,
      "Kiriati": 2495,
      "Persia": 2496,
      "Boasi": 2497,
      "agbá": 2498,
      "adágún": 2499,
      "irínwó": 2500,
      "tta": 2501,
      "uni": 2502,
      "Ìbínú": 2503,
      "Òfin": 2504,
      "àgbá": 2505,
      "àsálà": 2506,
      "ìsá": 2507,
      "íǹde": 2508,
      "ọ̀ọ́": 2509,
      "ọ̀pẹ": 2510,
      "ṣeti": 2511,
      "aláìṣòótọ́": 2512,
      "Joaṣi": 2513,
      "àjíǹde": 2514,
      "loro": 2515,
      "Lea": 2516,
      "kẹjọ": 2517,
      "kẹwàá": 2518,
      "làálàá": 2519,
      "Jehoaṣi": 2520,
      "taniah": 2521,
      "Abijah": 2522,
      "fọ̀ṣẹ": 2523,
      "ìgboro": 2524,
      "ìwẹ̀fà": 2525,
      "ìwẹ̀nù": 2526,
      "ronúpìwàdà": 2527,
      "Kora": 2528,
      "nibíni": 2529,
      "20": 2530,
      "70": 2531,
      "Dá": 2532,
      "ata": 2533,
      "itan": 2534,
      "árá": 2535,
      "òò": 2536,
      "òṣì": 2537,
      "níbo": 2538,
      "nítòsí": 2539,
      "ọ̀já": 2540,
      "ọ̀wọ̀": 2541,
      "rẹ̀àti": 2542,
      "Sihoni": 2543,
      "ìyàsọ́tọ̀": 2544,
      "ìtùnú": 2545,
      "10": 2546,
      "Ibi": 2547,
      "Tẹ": 2548,
      "Torí": 2549,
      "fàà": 2550,
      "meli": 2551,
      "rṣeba": 2552,
      "Ìy": 2553,
      "Ìbá": 2554,
      "àrékérekè": 2555,
      "èkínní": 2556,
      "ìká": 2557,
      "ǹfàà": 2558,
      "ẹbí": 2559,
      "gbààwẹ̀": 2560,
      "kíká": 2561,
      "díran": 2562,
      "lẹ́jọ́": 2563,
      "Satani": 2564,
      "Ẹ̀rù": 2565,
      "aláìṣẹ̀": 2566,
      "àìlera": 2567,
      "túká": 2568,
      "olówó": 2569,
      "beri": 2570,
      "ẹgbẹ̀ta": 2571,
      "rọbí": 2572,
      "rọ́pò": 2573,
      "àyàfi": 2574,
      "alàgbà": 2575,
      "Síbẹ̀síbẹ̀": 2576,
      "Asafu": 2577,
      "Lójú": 2578,
      "Maaka": 2579,
      "Beerṣeba": 2580,
      "oorun": 2581,
      "gẹ̀rẹ́": 2582,
      "òṣìṣẹ́": 2583,
      "ǹfààní": 2584,
      "Nǹkan": 2585,
      "Obedi": 2586,
      "Pu": 2587,
      "Rárá": 2588,
      "Sá": 2589,
      "Yí": 2590,
      "ewu": 2591,
      "mọ́n": 2592,
      "àlè": 2593,
      "àrà": 2594,
      "àgbọ̀n": 2595,
      "ìbéèrè": 2596,
      "niah": 2597,
      "lápapọ̀": 2598,
      "riki": 2599,
      "gbéga": 2600,
      "dídán": 2601,
      "daliah": 2602,
      "ibikíbi": 2603,
      "tàjẹ̀": 2604,
      "kìtì": 2605,
      "inúnibíni": 2606,
      "ńláńlá": 2607,
      "naba": 2608,
      "bọ̀wọ̀": 2609,
      "kẹtà": 2610,
      "kẹsàn": 2611,
      "Giriki": 2612,
      "Tamari": 2613,
      "ibùjókòó": 2614,
      "ìparí": 2615,
      "dínlógójì": 2616,
      "Naa": 2617,
      "Kai": 2618,
      "Wòlíì": 2619,
      "feti": 2620,
      "ìràpadà": 2621,
      "Esra": 2622,
      "Barnaba": 2623,
      "mẹ́ẹ̀ẹ́dọ́gbọ̀n": 2624,
      "àtẹ́lẹ": 2625,
      "Rutu": 2626,
      "mọ́ná": 2627,
      "kẹsànán": 2628,
      "Alá": 2629,
      "Ilé": 2630,
      "Olúkúlùkù": 2631,
      "apànìyàn": 2632,
      "dan": 2633,
      "fúù": 2634,
      "oku": 2635,
      "ppa": 2636,
      "Àní": 2637,
      "Òkú": 2638,
      "àìṣòótọ́": 2639,
      "ìgò": 2640,
      "ìloro": 2641,
      "òfo": 2642,
      "nirun": 2643,
      "nilójú": 2644,
      "wárí": 2645,
      "lójoojúmọ́": 2646,
      "lẹ́wà": 2647,
      "sareti": 2648,
      "kérora": 2649,
      "ìṣù": 2650,
      "tẹ̀ẹ̀": 2651,
      "omijé": 2652,
      "ìdámẹ́ta": 2653,
      "sápamọ́": 2654,
      "gbọ̀nọ́n": 2655,
      "fífẹ̀": 2656,
      "ìrandíran": 2657,
      "Ahas": 2658,
      "Gedaliah": 2659,
      "Hilkiah": 2660,
      "àwokòtò": 2661,
      "ìgbẹ̀yìn": 2662,
      "darapọ̀": 2663,
      "ìrònú": 2664,
      "ìlọ́po": 2665,
      "fúùfù": 2666,
      "500": 2667,
      "fta": 2668,
      "goni": 2669,
      "ila": 2670,
      "Ìwọ̀nyí": 2671,
      "ìkan": 2672,
      "ọ̀gbìn": 2673,
      "àna": 2674,
      "palẹ̀": 2675,
      "gbéra": 2676,
      "Jefta": 2677,
      "dídá": 2678,
      "dídára": 2679,
      "boṣeti": 2680,
      "mẹ́tẹ̀ẹ̀": 2681,
      "aṣu": 2682,
      "gúnwà": 2683,
      "onírẹ̀lẹ̀": 2684,
      "dínlọ́gbọ̀n": 2685,
      "Naomi": 2686,
      "dẹ́kun": 2687,
      "Kal": 2688,
      "Títí": 2689,
      "werusi": 2690,
      "bìkan": 2691,
      "Mikaiah": 2692,
      "mẹ́ẹ̀ẹ́dógún": 2693,
      "ẹ̀ẹ́dẹ́gbẹ̀ta": 2694,
      "Ussiah": 2695,
      "alábápín": 2696,
      "Ahaswerusi": 2697,
      "Gbà": 2698,
      "Iṣẹ́": 2699,
      "Nuni": 2700,
      "Omi": 2701,
      "Wí": 2702,
      "ate": 2703,
      "arọ": 2704,
      "dọ": 2705,
      "egbò": 2706,
      "iyè": 2707,
      "àké": 2708,
      "àpéjọ": 2709,
      "èè": 2710,
      "ìlé": 2711,
      "ìbàjẹ́": 2712,
      "ìwádìí": 2713,
      "òkìtì": 2714,
      "Ẹlẹ́": 2715,
      "ẹgbẹ": 2716,
      "ọpọ́n": 2717,
      "tinú": 2718,
      "áàrín": 2719,
      "ṣetán": 2720,
      "riwo": 2721,
      "riusi": 2722,
      "pẹ̀lẹ́": 2723,
      "Jeṣua": 2724,
      "boti": 2725,
      "bora": 2726,
      "búkọ": 2727,
      "alágbà": 2728,
      "rotu": 2729,
      "Jotamu": 2730,
      "dúnrún": 2731,
      "gbẹ́nà": 2732,
      "ìdíbàjẹ́": 2733,
      "bàwọ́n": 2734,
      "Hasa": 2735,
      "Tar": 2736,
      "akini": 2737,
      "Abiata": 2738,
      "Ṣafani": 2739,
      "inadabu": 2740,
      "ṣòfò": 2741,
      "fèsì": 2742,
      "Hananiah": 2743,
      "tọkàntọkàn": 2744,
      "Elamu": 2745,
      "Karmeli": 2746,
      "Adonijah": 2747,
      "ìwẹ̀nùmọ́": 2748,
      "mẹ́tẹ̀ẹ̀ta": 2749,
      "Abiatari": 2750,
      "Bara": 2751,
      "Dúró": 2752,
      "amòye": 2753,
      "fú": 2754,
      "feli": 2755,
      "imú": 2756,
      "iyọ̀": 2757,
      "Èé": 2758,
      "Ìwé": 2759,
      "àìṣòdodo": 2760,
      "àǹfààní": 2761,
      "ìkún": 2762,
      "ẹsẹ": 2763,
      "nílẹ̀": 2764,
      "ríṣìí": 2765,
      "lóde": 2766,
      "ranate": 2767,
      "giranate": 2768,
      "ìgbàyà": 2769,
      "àájú": 2770,
      "kedoni": 2771,
      "ìṣàn": 2772,
      "tẹ̀gùn": 2773,
      "láàdọ́": 2774,
      "pète": 2775,
      "bọ̀rìṣà": 2776,
      "Ọ̀nà": 2777,
      "gírí": 2778,
      "gídí": 2779,
      "megiranate": 2780,
      "ìpayà": 2781,
      "ẹgbẹ̀ẹ́": 2782,
      "Timoti": 2783,
      "Amnoni": 2784,
      "Jabesi": 2785,
      "Lórí": 2786,
      "ìbòrí": 2787,
      "ìmúṣẹ": 2788,
      "mọ̀nàmọ́ná": 2789,
      "àṣeyọrí": 2790,
      "kíkúnná": 2791,
      "òpópónà": 2792,
      "ọ̀ọ́dúnrún": 2793,
      "Lójúkan": 2794,
      "dọọdún": 2795,
      "Timotiu": 2796,
      "arẹwà": 2797,
      "dra": 2798,
      "ákù": 2799,
      "ìjẹ": 2800,
      "ẹ̀fúùfù": 2801,
      "yípo": 2802,
      "lọ́ṣọ̀": 2803,
      "Níbi": 2804,
      "leti": 2805,
      "bori": 2806,
      "nígbàgbọ́": 2807,
      "nígbàkúgbà": 2808,
      "Baruku": 2809,
      "Baaṣa": 2810,
      "Sik": 2811,
      "yànjú": 2812,
      "Olódodo": 2813,
      "Makedoni": 2814,
      "Nasareti": 2815,
      "ìlara": 2816,
      "pomegiranate": 2817,
      "yanrìn": 2818,
      "Kadeṣi": 2819,
      "Ramoti": 2820,
      "Hiramu": 2821,
      "agbádá": 2822,
      "ìkáwọ́": 2823,
      "Makedonia": 2824,
      "Ah": 2825,
      "Idà": 2826,
      "Tẹ́": 2827,
      "agba": 2828,
      "idì": 2829,
      "ubú": 2830,
      "Ààlà": 2831,
      "Ìfẹ́": 2832,
      "àbẹ̀": 2833,
      "ìgbẹ́": 2834,
      "ìkun": 2835,
      "ìdàpọ̀": 2836,
      "òbí": 2837,
      "òtútù": 2838,
      "óákù": 2839,
      "ǹdè": 2840,
      "ṣàì": 2841,
      "ọjà": 2842,
      "nílé": 2843,
      "níyànjú": 2844,
      "ọ̀sẹ̀": 2845,
      "rírú": 2846,
      "láyé": 2847,
      "símímọ́": 2848,
      "báwo": 2849,
      "kọkàn": 2850,
      "pọ̀jù": 2851,
      "lùfẹ́": 2852,
      "dai": 2853,
      "kódà": 2854,
      "lẹ́sẹ̀": 2855,
      "kamu": 2856,
      "seiah": 2857,
      "Dariusi": 2858,
      "jọpọ̀": 2859,
      "mai": 2860,
      "keri": 2861,
      "ìṣubú": 2862,
      "ìjó": 2863,
      "ọ̀kankan": 2864,
      "olùṣe": 2865,
      "olóyè": 2866,
      "Ṣeme": 2867,
      "Hamu": 2868,
      "gbòò": 2869,
      "Naili": 2870,
      "àkọ́so": 2871,
      "Ṣallu": 2872,
      "feri": 2873,
      "dúdú": 2874,
      "biribiri": 2875,
      "Adamu": 2876,
      "ìléru": 2877,
      "lọ́ṣọ̀ọ́": 2878,
      "àbẹ̀tẹ́lẹ̀": 2879,
      "ìkunra": 2880,
      "Ede": 2881,
      "Usi": 2882,
      "fé": 2883,
      "gán": 2884,
      "jin": 2885,
      "kúr": 2886,
      "kojú": 2887,
      "rma": 2888,
      "sàájú": 2889,
      "Ègún": 2890,
      "àpapọ̀": 2891,
      "ìsọ": 2892,
      "ìrẹ̀lẹ̀": 2893,
      "ìgúnwà": 2894,
      "òbúkọ": 2895,
      "gbùn": 2896,
      "ọ́nú": 2897,
      "tímọ́": 2898,
      "àtinú": 2899,
      "firi": 2900,
      "badi": 2901,
      "ìyọ́nú": 2902,
      "lójijì": 2903,
      "dàrú": 2904,
      "ahi": 2905,
      "kúnlẹ̀": 2906,
      "Josa": 2907,
      "Sal": 2908,
      "ìdásílẹ̀": 2909,
      "Ẹ̀ṣẹ̀": 2910,
      "aláìlágbára": 2911,
      "àìgbọ́ràn": 2912,
      "olùrànlọ́wọ́": 2913,
      "olóye": 2914,
      "dóje": 2915,
      "gbede": 2916,
      "ṣaki": 2917,
      "rẹ́rìn": 2918,
      "Mat": 2919,
      "Meṣu": 2920,
      "láìléwu": 2921,
      "Efe": 2922,
      "Hifi": 2923,
      "àdéhùn": 2924,
      "ìtẹ̀bọmi": 2925,
      "mọ́kànlá": 2926,
      "Seruiah": 2927,
      "Kaldea": 2928,
      "Ṣallumu": 2929,
      "kúrú": 2930,
      "àtinúwá": 2931,
      "40": 2932,
      "Ek": 2933,
      "Fine": 2934,
      "Hore": 2935,
      "Nine": 2936,
      "Oho": 2937,
      "Oore": 2938,
      "al": 2939,
      "efa": 2940,
      "pù": 2941,
      "stu": 2942,
      "ìgbọ́": 2943,
      "òkìkí": 2944,
      "ṣọ̀nà": 2945,
      "ẹyin": 2946,
      "anoa": 2947,
      "paláṣẹ": 2948,
      "pariwo": 2949,
      "lówó": 2950,
      "lẹ́tà": 2951,
      "fẹ́rí": 2952,
      "ọ̀rọ̀ọ̀rún": 2953,
      "alágbèrè": 2954,
      "sea": 2955,
      "sera": 2956,
      "yèsí": 2957,
      "Joramu": 2958,
      "sójú": 2959,
      "gbèsè": 2960,
      "nawọ́": 2961,
      "àìmọ̀": 2962,
      "sori": 2963,
      "fífi": 2964,
      "Hes": 2965,
      "Seba": 2966,
      "aninilára": 2967,
      "sanra": 2968,
      "ṣiṣi": 2969,
      "Makiri": 2970,
      "Refa": 2971,
      "Ọmọbìnrin": 2972,
      "Nebati": 2973,
      "Abiṣai": 2974,
      "wùjọ": 2975,
      "Síwájú": 2976,
      "hudu": 2977,
      "Olùbùkún": 2978,
      "Kiṣi": 2979,
      "Ahijah": 2980,
      "ọgọ́ta": 2981,
      "Ohunkóhun": 2982,
      "Arnoni": 2983,
      "òrùlé": 2984,
      "ṣókùnkùn": 2985,
      "ìbòjú": 2986,
      "ewéko": 2987,
      "bèbè": 2988,
      "kíyèsára": 2989,
      "bbabeli": 2990,
      "Serubbabeli": 2991,
      "Lib": 2992,
      "oríṣìíríṣìí": 2993,
      "Meṣullamu": 2994,
      "Finehasi": 2995,
      "Ninefe": 2996,
      "24": 2997,
      "400": 2998,
      "Aki": 2999,
      "Alágbára": 3000,
      "Gba": 3001,
      "Harani": 3002,
      "Laki": 3003,
      "ibìkan": 3004,
      "jọba": 3005,
      "oó": 3006,
      "pọ́njú": 3007,
      "tọ̀nà": 3008,
      "Ìwà": 3009,
      "Ìran": 3010,
      "Ìbẹ̀rù": 3011,
      "Òtítọ́": 3012,
      "àtà": 3013,
      "àtúnṣe": 3014,
      "àkíyèsí": 3015,
      "àwùjọ": 3016,
      "ète": 3017,
      "ìṣẹ̀": 3018,
      "ìdì": 3019,
      "ìdẹ̀": 3020,
      "ìtàjẹ̀": 3021,
      "òwú": 3022,
      "ńkọ́": 3023,
      "ṣọ̀kan": 3024,
      "sílé": 3025,
      "kígbà": 3026,
      "tamari": 3027,
      "jádò": 3028,
      "ahati": 3029,
      "làpá": 3030,
      "kèjádò": 3031,
      "kasia": 3032,
      "ojúsàájú": 3033,
      "ìṣọ̀tẹ̀": 3034,
      "tìtì": 3035,
      "ìdán": 3036,
      "ìdákẹ́": 3037,
      "ìdánilójú": 3038,
      "oníṣọ̀nà": 3039,
      "Sisera": 3040,
      "jalè": 3041,
      "ìyàsímímọ́": 3042,
      "gbójú": 3043,
      "Hada": 3044,
      "yapa": 3045,
      "rẹ́rẹ́": 3046,
      "Padà": 3047,
      "àjọyọ̀": 3048,
      "ẹrúbìnrin": 3049,
      "Kirusi": 3050,
      "Johanani": 3051,
      "Ṣam": 3052,
      "ìṣeun": 3053,
      "gangan": 3054,
      "Hori": 3055,
      "dẹ̀dẹ̀": 3056,
      "Aṣọ": 3057,
      "Romu": 3058,
      "kẹrìnlá": 3059,
      "àgbọ̀nrín": 3060,
      "Naamani": 3061,
      "Kaini": 3062,
      "Hasaeli": 3063,
      "Tarṣiṣi": 3064,
      "Ṣemeṣi": 3065,
      "Ekroni": 3066,
      "Lakiṣi": 3067,
      "600": 3068,
      "Ag": 3069,
      "Wo": 3070,
      "agbede": 3071,
      "rra": 3072,
      "Ìdájọ́": 3073,
      "Òkè": 3074,
      "àjẹ": 3075,
      "àwárí": 3076,
      "àtẹ̀gùn": 3077,
      "èsì": 3078,
      "ètò": 3079,
      "ìjá": 3080,
      "ṣani": 3081,
      "anì": 3082,
      "kíkọ́": 3083,
      "lẹ̀wò": 3084,
      "nújẹ́": 3085,
      "ọmọnì": 3086,
      "lékè": 3087,
      "dámọ̀ràn": 3088,
      "morra": 3089,
      "ilẹ̀ṣẹ̀": 3090,
      "jákèjádò": 3091,
      "tààrà": 3092,
      "ìgbàanì": 3093,
      "ròyé": 3094,
      "nai": 3095,
      "ìdáná": 3096,
      "aláìlẹ́": 3097,
      "Abeli": 3098,
      "Kesari": 3099,
      "dínlọ́gọ́": 3100,
      "Nabali": 3101,
      "Nadabu": 3102,
      "Naboti": 3103,
      "Gasa": 3104,
      "Ọbadiah": 3105,
      "gbígbé": 3106,
      "Pẹ̀lúpẹ̀lú": 3107,
      "dìímú": 3108,
      "Amasa": 3109,
      "múramù": 3110,
      "bìnújẹ́": 3111,
      "jowú": 3112,
      "ọ̀gágun": 3113,
      "mẹ́rìnlá": 3114,
      "Gomorra": 3115,
      "Susa": 3116,
      "Maaseiah": 3117,
      "Hagari": 3118,
      "Òkúta": 3119,
      "agbada": 3120,
      "Hesroni": 3121,
      "ìdánwò": 3122,
      "ọmọnìkejì": 3123,
      "300": 3124,
      "Amoni": 3125,
      "Bó": 3126,
      "Kọ́": 3127,
      "Lọ́": 3128,
      "Ogu": 3129,
      "oṣó": 3130,
      "sta": 3131,
      "yàg": 3132,
      "Àà": 3133,
      "Àsọtẹ́lẹ̀": 3134,
      "Àpapọ̀": 3135,
      "Èwo": 3136,
      "àpè": 3137,
      "àfọ̀ṣẹ": 3138,
      "ìfún": 3139,
      "ìkìlọ̀": 3140,
      "ṣàkóso": 3141,
      "Ọrẹ": 3142,
      "Ọgbọ́n": 3143,
      "nílò": 3144,
      "nia": 3145,
      "una": 3146,
      "ramúramù": 3147,
      "lọ́gbọ́n": 3148,
      "bia": 3149,
      "rúgbìn": 3150,
      "takò": 3151,
      "redi": 3152,
      "kókó": 3153,
      "lẹ́sẹ": 3154,
      "fẹ́lẹ́": 3155,
      "wòye": 3156,
      "aláìlá": 3157,
      "aláìlábùkù": 3158,
      "Sila": 3159,
      "dùnnú": 3160,
      "jíṣẹ́": 3161,
      "Mar": 3162,
      "pàṣán": 3163,
      "níbikíbi": 3164,
      "ẹgbẹ̀rin": 3165,
      "Media": 3166,
      "Ammi": 3167,
      "ìrísí": 3168,
      "ẹgbàa": 3169,
      "Olùfẹ́": 3170,
      "faradà": 3171,
      "ọ̀dọ́mọdé": 3172,
      "ọ̀dọ́mọbìnrin": 3173,
      "fọ́nká": 3174,
      "àwọ̀tẹ́lẹ̀": 3175,
      "eékún": 3176,
      "Rimoni": 3177,
      "jinlẹ̀": 3178,
      "Akiṣi": 3179,
      "200": 3180,
      "Bili": 3181,
      "Eg": 3182,
      "Eno": 3183,
      "Im": 3184,
      "Itamari": 3185,
      "Ké": 3186,
      "Lára": 3187,
      "emu": 3188,
      "ebè": 3189,
      "iy": 3190,
      "iyanrìn": 3191,
      "man": 3192,
      "mna": 3193,
      "oró": 3194,
      "ogbó": 3195,
      "yẹ́": 3196,
      "Ìpín": 3197,
      "èlé": 3198,
      "ìfihàn": 3199,
      "ìpẹ̀kun": 3200,
      "ìdùnnú": 3201,
      "ṣàn": 3202,
      "Ẹran": 3203,
      "Ẹnìkan": 3204,
      "”.": 3205,
      "nípọn": 3206,
      "níhà": 3207,
      "ọ̀mù": 3208,
      "rẹ̀ṣùgbọ́n": 3209,
      "fúnrúgbìn": 3210,
      "kíkú": 3211,
      "lọ́mọ": 3212,
      "rẹàti": 3213,
      "lélọ́gbọ̀n": 3214,
      "úru": 3215,
      "jálù": 3216,
      "daiah": 3217,
      "lẹ́rù": 3218,
      "leli": 3219,
      "dodu": 3220,
      "kama": 3221,
      "ojúbọ": 3222,
      "kẹ́dùn": 3223,
      "àáké": 3224,
      "kọ̀sílẹ̀": 3225,
      "ìpilẹ̀ṣẹ̀": 3226,
      "kálùkù": 3227,
      "lati": 3228,
      "gúnlẹ̀": 3229,
      "naà": 3230,
      "oníkálùkù": 3231,
      "ìhó": 3232,
      "túbọ̀": 3233,
      "olólùfẹ́": 3234,
      "gbẹ̀dẹ": 3235,
      "yẹra": 3236,
      "Ṣemu": 3237,
      "Ṣela": 3238,
      "Elifa": 3239,
      "Mak": 3240,
      "wúlò": 3241,
      "Jehoahasi": 3242,
      "Timna": 3243,
      "ìgbésẹ̀": 3244,
      "lóòtítọ́": 3245,
      "Asia": 3246,
      "toti": 3247,
      "tofeli": 3248,
      "Ahitofeli": 3249,
      "Jehoiakini": 3250,
      "Amosi": 3251,
      "Aṣdodu": 3252,
      "ìṣòro": 3253,
      "Jesebeli": 3254,
      "Arákùnrin": 3255,
      "gbóguntì": 3256,
      "ìṣẹ́tí": 3257,
      "Dípò": 3258,
      "Lóòtítọ́": 3259,
      "Ìyókù": 3260,
      "ìrònúpìwàdà": 3261,
      "ìkangun": 3262,
      "àkéte": 3263,
      "Tẹ́tí": 3264,
      "Efesu": 3265,
      "ìdẹ̀kùn": 3266,
      "ọ̀mùtí": 3267,
      "60": 3268,
      "Aro": 3269,
      "Hana": 3270,
      "aka": 3271,
      "agbọ̀n": 3272,
      "adùn": 3273,
      "ddai": 3274,
      "gọ": 3275,
      "kko": 3276,
      "sọ́nà": 3277,
      "toni": 3278,
      "Àyà": 3279,
      "Àgọ́": 3280,
      "àṣ": 3281,
      "àmu": 3282,
      "àfẹ̀": 3283,
      "èje": 3284,
      "ìwárìrì": 3285,
      "ìkorò": 3286,
      "òf": 3287,
      "ẹyọ": 3288,
      "ọlọ": 3289,
      "gbúrò": 3290,
      "tiwa": 3291,
      "tieli": 3292,
      "ọ̀lẹ": 3293,
      "ọ̀kánkán": 3294,
      "nieli": 3295,
      "ríru": 3296,
      "láá": 3297,
      "gbàá": 3298,
      "bai": 3299,
      "lọ́ra": 3300,
      "kana": 3301,
      "dáná": 3302,
      "ìyàngbẹ": 3303,
      "mọ́júmọ́": 3304,
      "Jeari": 3305,
      "deseri": 3306,
      "jọ́sìn": 3307,
      "kójọ": 3308,
      "aláàánú": 3309,
      "aláìgbàgbọ́": 3310,
      "alágbẹ̀dẹ": 3311,
      "kọ́ṣe": 3312,
      "ojúkòkòrò": 3313,
      "kẹ́yìn": 3314,
      "Joeli": 3315,
      "àárọ̀": 3316,
      "àádóje": 3317,
      "ìṣí": 3318,
      "ìpààrọ̀": 3319,
      "ìdábùú": 3320,
      "?”“": 3321,
      "ṣuri": 3322,
      "fífì": 3323,
      "ìyàtọ̀": 3324,
      "tẹjúmọ́": 3325,
      "lójúkan": 3326,
      "Hasori": 3327,
      "Eliabu": 3328,
      "ọlọ́kàn": 3329,
      "ẹlẹ́gàn": 3330,
      "Keila": 3331,
      "Netaniah": 3332,
      "méjèèje": 3333,
      "Gehasi": 3334,
      "alikama": 3335,
      "rọ́rọ́": 3336,
      "Ahikamu": 3337,
      "Hosea": 3338,
      "Anti": 3339,
      "Arauna": 3340,
      "Anatoti": 3341,
      "láìnídìí": 3342,
      "àṣàyàn": 3343,
      "ooru": 3344,
      "Seraiah": 3345,
      "Elkana": 3346,
      "apanirun": 3347,
      "híhun": 3348,
      "gbòòrò": 3349,
      "Edeni": 3350,
      "Horebu": 3351,
      "Oholi": 3352,
      "Hadadeseri": 3353,
      "Bóyá": 3354,
      "lẹ́sẹẹsẹ": 3355,
      "àfẹ̀mọ́júmọ́": 3356,
      "gbúròó": 3357,
      "Jearimu": 3358,
      "13": 3359,
      "Atali": 3360,
      "Do": 3361,
      "Eṣ": 3362,
      "Elé": 3363,
      "Ikú": 3364,
      "Iná": 3365,
      "Lẹ́": 3366,
      "ab": 3367,
      "ikùn": 3368,
      "iyàrá": 3369,
      "jèrè": 3370,
      "nna": 3371,
      "onígbàgbọ́": 3372,
      "rsa": 3373,
      "tẹnu": 3374,
      "umu": 3375,
      "wì": 3376,
      "Ìjọba": 3377,
      "ìkọ́": 3378,
      "ìtọ́": 3379,
      "ìkọlà": 3380,
      "Ẹbọ": 3381,
      "Ọdún": 3382,
      "ọ́lẹ̀wò": 3383,
      "lọ́sàn": 3384,
      "deru": 3385,
      "aheli": 3386,
      "dídúró": 3387,
      "ayọ́lẹ̀wò": 3388,
      "ààrò": 3389,
      "ṣẹ̀sín": 3390,
      "òkèrè": 3391,
      "tẹ̀bọmi": 3392,
      "àìwú": 3393,
      "Bel": 3394,
      "olùkọ́ni": 3395,
      "tòṣì": 3396,
      "kejìlá": 3397,
      "ṣassari": 3398,
      "Kesa": 3399,
      "ìpalára": 3400,
      "Reka": 3401,
      "sàmì": 3402,
      "Gera": 3403,
      "dánù": 3404,
      "ẹgbàárùn": 3405,
      "fúnrayín": 3406,
      "fòyà": 3407,
      "ìkọ̀sílẹ̀": 3408,
      "fọhùn": 3409,
      "Arabia": 3410,
      "mẹ́tàlá": 3411,
      "Temani": 3412,
      "Nahori": 3413,
      "Orílẹ̀": 3414,
      "àfikún": 3415,
      "Kọrin": 3416,
      "darandaran": 3417,
      "ìfúntí": 3418,
      "àṣìṣe": 3419,
      "Antioku": 3420,
      "Eléyìí": 3421,
      "14": 3422,
      "18": 3423,
      "100": 3424,
      "Asán": 3425,
      "Iṣi": 3426,
      "Kè": 3427,
      "Lu": 3428,
      "Láàrín": 3429,
      "Pé": 3430,
      "San": 3431,
      "amọ̀nà": 3432,
      "bbi": 3433,
      "gùntàn": 3434,
      "irùn": 3435,
      "ikọ̀": 3436,
      "onínú": 3437,
      "okun": 3438,
      "Àgùntàn": 3439,
      "ìtí": 3440,
      "ìrù": 3441,
      "ìkọjá": 3442,
      "ìrẹ́": 3443,
      "òtòṣì": 3444,
      "ṣèké": 3445,
      "ẹgb": 3446,
      "ẹkùn": 3447,
      "gbọn": 3448,
      "tipa": 3449,
      "níye": 3450,
      "rati": 3451,
      "síbí": 3452,
      "fira": 3453,
      "lọ́hùn": 3454,
      "lóye": 3455,
      "rieli": 3456,
      "pẹ̀lúpẹ̀lú": 3457,
      "Jehi": 3458,
      "díbàjẹ́": 3459,
      "daki": 3460,
      "kèké": 3461,
      "ojúlówó": 3462,
      "kùú": 3463,
      "ṣẹ̀ṣẹ̀": 3464,
      "mẹ́sàn": 3465,
      "gaili": 3466,
      "nani": 3467,
      "méjìlélógún": 3468,
      "aláìwú": 3469,
      "olókìkí": 3470,
      "ẹ̀yìnwá": 3471,
      "Her": 3472,
      "Senna": 3473,
      "Eliakimu": 3474,
      "ẹlẹ́dẹ̀": 3475,
      "pàkò": 3476,
      "Neri": 3477,
      "Abigaili": 3478,
      "agbowó": 3479,
      "Tirsa": 3480,
      "dánwò": 3481,
      "Ṣiba": 3482,
      "jiyàn": 3483,
      "ọgọ́rin": 3484,
      "ìtura": 3485,
      "súré": 3486,
      "ìtasórí": 3487,
      "ṣòro": 3488,
      "Mikali": 3489,
      "òjìá": 3490,
      "ìkọ̀sẹ̀": 3491,
      "àtẹ̀yìnwá": 3492,
      "òǹdè": 3493,
      "mẹ́tàlélógún": 3494,
      "Anaki": 3495,
      "Sukko": 3496,
      "Asaheli": 3497,
      "paramọ́lẹ̀": 3498,
      "ìfibú": 3499,
      "Kódà": 3500,
      "ttimu": 3501,
      "tètèkọ́ṣe": 3502,
      "Lóòótọ́": 3503,
      "alágbàṣe": 3504,
      "keribu": 3505,
      "ìjókòó": 3506,
      "Usieli": 3507,
      "Refaimu": 3508,
      "Libina": 3509,
      "ìjánu": 3510,
      "úrufú": 3511,
      "Elifasi": 3512,
      "òfúrufú": 3513,
      "Ataliah": 3514,
      "wìwí": 3515,
      "Kesarea": 3516,
      "Rekabu": 3517,
      "Kèfèrí": 3518,
      "irùngbọ̀n": 3519,
      "Sennakeribu": 3520,
      "Sukkoti": 3521,
      ");": 3522,
      "25": 3523,
      "Ase": 3524,
      "Apo": 3525,
      "Afe": 3526,
      "En": 3527,
      "Gòkè": 3528,
      "Haṣa": 3529,
      "Manoa": 3530,
      "Oní": 3531,
      "Ogun": 3532,
      "Odò": 3533,
      "Omri": 3534,
      "apẹ̀": 3535,
      "aríran": 3536,
      "agídí": 3537,
      "bàg": 3538,
      "eri": 3539,
      "jọ̀": 3540,
      "kẹ́ẹ̀": 3541,
      "lle": 3542,
      "llo": 3543,
      "mún": 3544,
      "pààrọ̀": 3545,
      "sara": 3546,
      "Ìyá": 3547,
      "àsí": 3548,
      "àjálù": 3549,
      "àtètèkọ́ṣe": 3550,
      "ìkẹ́": 3551,
      "ìnilára": 3552,
      "òpè": 3553,
      "Ṣí": 3554,
      "Ẹsẹ̀": 3555,
      "ọdọọdún": 3556,
      "ẹ̀gbà": 3557,
      "ẹ̀gbin": 3558,
      "nígba": 3559,
      "ríjì": 3560,
      "fiboṣeti": 3561,
      "fiyèsí": 3562,
      "lọ́lá": 3563,
      "lọ́gán": 3564,
      "parẹ́": 3565,
      "kantí": 3566,
      "taimu": 3567,
      "pọ̀n": 3568,
      "ahabu": 3569,
      "dídì": 3570,
      "siri": 3571,
      "lẹ́kun": 3572,
      "sai": 3573,
      "ojúṣe": 3574,
      "kẹ́lẹ́": 3575,
      "Jok": 3576,
      "kọ̀ọ́": 3577,
      "ìpànìyàn": 3578,
      "Ẹ̀jẹ̀": 3579,
      "olùpọ́njú": 3580,
      "dòjé": 3581,
      "riamu": 3582,
      "etílé": 3583,
      "ìbáaka": 3584,
      "àníyàn": 3585,
      "Keni": 3586,
      "Kedari": 3587,
      "Miriamu": 3588,
      "Meṣe": 3589,
      "Mefiboṣeti": 3590,
      "ìtẹ́lọ́rùn": 3591,
      "ṣàfẹ́rí": 3592,
      "aṣibu": 3593,
      "Horoni": 3594,
      "Eliṣama": 3595,
      "Nebusara": 3596,
      "eléso": 3597,
      "Lónìí": 3598,
      "banújẹ́": 3599,
      "ọmọdékùnrin": 3600,
      "Huri": 3601,
      "àṣàrò": 3602,
      "Tobiah": 3603,
      "Sarai": 3604,
      "ẹ̀kúnrẹ́rẹ́": 3605,
      "ìwòsàn": 3606,
      "gẹ̀rẹ́gẹ̀rẹ́": 3607,
      "Yípadà": 3608,
      "àtẹ́lẹsẹ̀": 3609,
      "ìṣẹ̀lẹ̀": 3610,
      "Aroeri": 3611,
      "Belṣassari": 3612,
      "Jehieli": 3613,
      "bàgebè": 3614,
      "kẹ́ẹ̀dógún": 3615,
      "Nebusaradani": 3616,
      "130": 3617,
      "Agbára": 3618,
      "Bo": 3619,
      "Eberi": 3620,
      "Fe": 3621,
      "Gbí": 3622,
      "Oúnjẹ": 3623,
      "Tu": 3624,
      "afa": 3625,
      "adájọ́": 3626,
      "fìyà": 3627,
      "gìrì": 3628,
      "hín": 3629,
      "jàg": 3630,
      "lki": 3631,
      "mò": 3632,
      "minadabu": 3633,
      "tara": 3634,
      "tùnú": 3635,
      "Ètè": 3636,
      "Ìparun": 3637,
      "Òdodo": 3638,
      "Òwe": 3639,
      "àyí": 3640,
      "àkọ̀": 3641,
      "àròyé": 3642,
      "ìmí": 3643,
      "ìpadà": 3644,
      "ìtú": 3645,
      "ìsọtẹ́lẹ̀": 3646,
      "ìnira": 3647,
      "ìkáàánú": 3648,
      "írí": 3649,
      "òkun": 3650,
      "ẹ̀kẹta": 3651,
      "ọ̀gàn": 3652,
      "ríkì": 3653,
      "láyà": 3654,
      "miàti": 3655,
      "mimu": 3656,
      "síírí": 3657,
      "ṣeni": 3658,
      "babu": 3659,
      "lópin": 3660,
      "dárúkọ": 3661,
      "ìyàngbò": 3662,
      "mítà": 3663,
      "Jefun": 3664,
      "tasa": 3665,
      "bẹ̀wò": 3666,
      "kúté": 3667,
      "wọ̀bì": 3668,
      "aláwọ̀": 3669,
      "kànnà": 3670,
      "tẹ́wọ́": 3671,
      "kété": 3672,
      "ràwọ̀": 3673,
      "Bani": 3674,
      "fàsẹ́yìn": 3675,
      "lagi": 3676,
      "gbọgbẹ́": 3677,
      "aláìsàn": 3678,
      "oníwà": 3679,
      "dọ́gba": 3680,
      "Sini": 3681,
      "Simri": 3682,
      "fai": 3683,
      "gbọ̀ngàn": 3684,
      "tubu": 3685,
      "ṣíjú": 3686,
      "Hemani": 3687,
      "gbóhùn": 3688,
      "Elisa": 3689,
      "Elihu": 3690,
      "Eliaṣibu": 3691,
      "ọlọ́ràá": 3692,
      "ẹlẹ́wọ̀n": 3693,
      "ẹlẹ́tàn": 3694,
      "Malkiah": 3695,
      "Mik": 3696,
      "pátákò": 3697,
      "Abihu": 3698,
      "ọ̀págun": 3699,
      "Amramu": 3700,
      "Amminadabu": 3701,
      "ìkólọ": 3702,
      "ẹyẹlé": 3703,
      "Rabba": 3704,
      "Ahimeleki": 3705,
      "kánjú": 3706,
      "Nípasẹ̀": 3707,
      "Amariah": 3708,
      "fínní": 3709,
      "fínfín": 3710,
      "Artasa": 3711,
      "Aṣke": 3712,
      "àgàbàgebè": 3713,
      "amọ̀kòkò": 3714,
      "ìṣẹ́jú": 3715,
      "ttai": 3716,
      "àtẹ́lẹwọ́": 3717,
      "dandan": 3718,
      "gbọ̀nọ́ngbọ̀nọ́n": 3719,
      "ẹgbẹ̀ẹ́dógún": 3720,
      "Siklagi": 3721,
      "kọkànlá": 3722,
      "Mattaniah": 3723,
      "láárí": 3724,
      "tẹnumọ́": 3725,
      "Hermoni": 3726,
      "apẹ̀rẹ̀": 3727,
      "àsíá": 3728,
      "Jefunne": 3729,
      "wọ̀bìà": 3730,
      "Artasasta": 3731,
      "22": 3732,
      "Al": 3733,
      "Aya": 3734,
      "Eti": 3735,
      "Id": 3736,
      "Lo": 3737,
      "Lẹ́ẹ̀": 3738,
      "adi": 3739,
      "atu": 3740,
      "bla": 3741,
      "egbè": 3742,
      "eṣinṣin": 3743,
      "edne": 3744,
      "ibò": 3745,
      "Àjọ": 3746,
      "Èrè": 3747,
      "Ìyìn": 3748,
      "Ìdáhùn": 3749,
      "ìrẹ̀": 3750,
      "òjijì": 3751,
      "úsọ̀rọ̀": 3752,
      "“,": 3753,
      "ẹ̀dùn": 3754,
      "tipá": 3755,
      "wọnàti": 3756,
      "ọ̀wọ̀n": 3757,
      "ọ̀rìn": 3758,
      "rígbà": 3759,
      "lápá": 3760,
      "láìjìyà": 3761,
      "láìpẹ́": 3762,
      "síhìn": 3763,
      "rẹ̀tí": 3764,
      "bíbí": 3765,
      "wíwá": 3766,
      "aráyé": 3767,
      "kani": 3768,
      "roti": 3769,
      "koni": 3770,
      "ọkànsìn": 3771,
      "gbèrú": 3772,
      "laiah": 3773,
      "ìdámẹ́rin": 3774,
      "ìdágìrì": 3775,
      "Ẹ̀yà": 3776,
      "onílà": 3777,
      "sábẹ́": 3778,
      "Bela": 3779,
      "loti": 3780,
      "Sifi": 3781,
      "fífún": 3782,
      "Abedne": 3783,
      "Ṣele": 3784,
      "jíjà": 3785,
      "Hamo": 3786,
      "Elieseri": 3787,
      "Peori": 3788,
      "Mag": 3789,
      "ṣáko": 3790,
      "dínlá": 3791,
      "dínlẹ́gbẹ̀": 3792,
      "Nasiri": 3793,
      "Meṣaki": 3794,
      "Nebo": 3795,
      "ókùúsọ̀rọ̀": 3796,
      "gégùn": 3797,
      "Titu": 3798,
      "ìkórìíra": 3799,
      "Jairi": 3800,
      "Rabbi": 3801,
      "Ṣadra": 3802,
      "Ahimasi": 3803,
      "Ahitubu": 3804,
      "ọgọ́ọ̀rún": 3805,
      "dàgbàsókè": 3806,
      "ìyẹ̀wù": 3807,
      "Mikaeli": 3808,
      "lẹ́ẹ̀kejì": 3809,
      "Goṣeni": 3810,
      "àlàyé": 3811,
      "Nim": 3812,
      "àtẹ́rígbà": 3813,
      "ràárọ̀": 3814,
      "àgbáyé": 3815,
      "Ẹlẹ́dàá": 3816,
      "Egloni": 3817,
      "manna": 3818,
      "gbàárin": 3819,
      "ẹgbẹgbẹ̀rún": 3820,
      "Haṣabiah": 3821,
      "Festu": 3822,
      "Lẹ́ẹ̀kan": 3823,
      "Abednego": 3824,
      "Ṣadraki": 3825,
      ":‘": 3826,
      "Alà": 3827,
      "Aga": 3828,
      "Adu": 3829,
      "Ibù": 3830,
      "Paṣu": 3831,
      "Rahabu": 3832,
      "Sọ̀": 3833,
      "Ste": 3834,
      "awò": 3835,
      "abọ̀rìṣà": 3836,
      "din": 3837,
      "dìn": 3838,
      "fó": 3839,
      "ieli": 3840,
      "oyè": 3841,
      "rna": 3842,
      "sra": 3843,
      "ssa": 3844,
      "tro": 3845,
      "Àá": 3846,
      "èpè": 3847,
      "ìgbá": 3848,
      "ìtán": 3849,
      "ǹda": 3850,
      "ǹpàkò": 3851,
      "ẹrẹ̀": 3852,
      "Ọlọ́gbọ́n": 3853,
      "’?": 3854,
      "gbẹ̀yìn": 3855,
      "nínà": 3856,
      "nírínwó": 3857,
      "ọ̀mọ̀": 3858,
      "láìmọ̀": 3859,
      "mieli": 3860,
      "rẹ̀kẹ́": 3861,
      "ànú": 3862,
      "bíríkì": 3863,
      "fiwé": 3864,
      "lọ́tọ̀": 3865,
      "lọ́fẹ̀ẹ́": 3866,
      "ìyapa": 3867,
      "rẹkí": 3868,
      "rẹpẹ̀": 3869,
      "lórúkọ": 3870,
      "már": 3871,
      "rúdò": 3872,
      "gbéyàwó": 3873,
      "Nígbàkígbà": 3874,
      "tai": 3875,
      "sini": 3876,
      "simu": 3877,
      "kèrúdò": 3878,
      "safi": 3879,
      "Moleki": 3880,
      "rankàn": 3881,
      "ààtàn": 3882,
      "Joppa": 3883,
      "àárì": 3884,
      "kọ̀lọ̀": 3885,
      "gbèjà": 3886,
      "ọ̀kanọba": 3887,
      "ìdálẹ́bi": 3888,
      "Jerubba": 3889,
      "aláìgbọ́ràn": 3890,
      "àìléwu": 3891,
      "ológo": 3892,
      "ọ̀pọ̀lọ́": 3893,
      "ṣíṣàn": 3894,
      "Ọ̀run": 3895,
      "Ṣeali": 3896,
      "àkójọpọ̀": 3897,
      "ọlọ́nà": 3898,
      "ibùba": 3899,
      "pẹ́rẹpẹ̀": 3900,
      "meki": 3901,
      "pàrọ̀": 3902,
      "pàdánù": 3903,
      "taneli": 3904,
      "tanná": 3905,
      "Neko": 3906,
      "Netaneli": 3907,
      "dẹ́tẹ̀": 3908,
      "odidi": 3909,
      "Karea": 3910,
      "anaimu": 3911,
      "Geba": 3912,
      "Geseri": 3913,
      "Geṣuri": 3914,
      "gbígbẹ́": 3915,
      "Efrata": 3916,
      "èébú": 3917,
      "ṣàkíyèsí": 3918,
      "fúnrawọn": 3919,
      "ìtànjẹ": 3920,
      "Arfa": 3921,
      "ìgbànú": 3922,
      "Anderu": 3923,
      "Gogu": 3924,
      "Iṣboṣeti": 3925,
      "llai": 3926,
      "ẹ̀ẹ́dẹ́gbàárin": 3927,
      "ìhámọ́": 3928,
      "Huṣai": 3929,
      "Arábìnrin": 3930,
      "Suri": 3931,
      "ìmúláradá": 3932,
      "Teko": 3933,
      "Ussa": 3934,
      "ẹ̀ẹ̀kan": 3935,
      "Mahili": 3936,
      "Mahanaimu": 3937,
      "òòlù": 3938,
      "gbẹ́nàgbẹ́nà": 3939,
      "Baraki": 3940,
      "àtàǹpàkò": 3941,
      "yàgàn": 3942,
      "ẹgbàajì": 3943,
      "Oholiba": 3944,
      "Lẹ́sẹ̀": 3945,
      "abókùúsọ̀rọ̀": 3946,
      "hínì": 3947,
      "Iddo": 3948,
      "Paṣuri": 3949,
      "Sọ̀kalẹ̀": 3950,
      "Stef": 3951,
      "dìnrín": 3952,
      "Jerubbaali": 3953,
      "pẹ́rẹpẹ̀rẹ": 3954,
      "Aláì": 3955,
      "Beli": 3956,
      "Debi": 3957,
      "Eri": 3958,
      "Ehudu": 3959,
      "Fetí": 3960,
      "Hin": 3961,
      "Han": 3962,
      "Hanu": 3963,
      "Igi": 3964,
      "Já": 3965,
      "Jí": 3966,
      "Mé": 3967,
      "Maha": 3968,
      "No": 3969,
      "Oli": 3970,
      "Pẹ": 3971,
      "Rí": 3972,
      "Uri": 3973,
      "Yin": 3974,
      "akó": 3975,
      "fẹnu": 3976,
      "fìlà": 3977,
      "gì": 3978,
      "gla": 3979,
      "gàárì": 3980,
      "iṣoni": 3981,
      "igẹ̀": 3982,
      "ioti": 3983,
      "kri": 3984,
      "mun": 3985,
      "mfi": 3986,
      "okò": 3987,
      "otu": 3988,
      "tṣeba": 3989,
      "Àdúrà": 3990,
      "Àpótí": 3991,
      "Èrò": 3992,
      "àgbẹ̀": 3993,
      "àìgbàgbọ́": 3994,
      "ání": 3995,
      "ìbìnújẹ́": 3996,
      "ìbẹ̀wò": 3997,
      "òwò": 3998,
      "ẹní": 3999,
      "ẹ̀yín": 4000,
      "ẹ̀dọ̀": 4001,
      "nísàlẹ̀": 4002,
      "mirin": 4003,
      "fini": 4004,
      "kíkọ": 4005,
      "kítà": 4006,
      "bari": 4007,
      "wáyé": 4008,
      "rákò": 4009,
      "dáǹdè": 4010,
      "rippa": 4011,
      ".”“": 4012,
      "Jedu": 4013,
      "Jedaiah": 4014,
      "Jeieli": 4015,
      "Jetro": 4016,
      "tayọ̀": 4017,
      "fẹ́rẹ̀": 4018,
      "lene": 4019,
      "bomirin": 4020,
      "aláfọ̀ṣẹ": 4021,
      "gbọ́tí": 4022,
      "kia": 4023,
      "ààrún": 4024,
      "Joi": 4025,
      "maliah": 4026,
      "suri": 4027,
      "kàkà": 4028,
      "hadi": 4029,
      "kookò": 4030,
      "Sak": 4031,
      "Sadu": 4032,
      "aṣáájú": 4033,
      "sóde": 4034,
      "ìṣògo": 4035,
      "finá": 4036,
      "Batṣeba": 4037,
      "fàya": 4038,
      "ìránṣẹ́kùnrin": 4039,
      "ìdákan": 4040,
      "ìdáláre": 4041,
      "ìdáríjì": 4042,
      "onítẹ̀bọmi": 4043,
      "Betani": 4044,
      "lílì": 4045,
      "bàbà": 4046,
      "olókè": 4047,
      "pele": 4048,
      "perna": 4049,
      "tuni": 4050,
      "tutù": 4051,
      "Abinadabu": 4052,
      "sìnkú": 4053,
      "Helle": 4054,
      "kẹsẹ̀": 4055,
      "beti": 4056,
      "bede": 4057,
      "Ṣefati": 4058,
      "Har": 4059,
      "Hasari": 4060,
      "ọlọ́rùn": 4061,
      "Peleti": 4062,
      "ìpamọ́": 4063,
      "Remaliah": 4064,
      "Meri": 4065,
      "Neto": 4066,
      "Nehe": 4067,
      "Kaperna": 4068,
      "Isari": 4069,
      "Efroni": 4070,
      "ṣépè": 4071,
      "ṣètò": 4072,
      "Jaseri": 4073,
      "lóòótọ́": 4074,
      "yíkákiri": 4075,
      "bìkítà": 4076,
      "ìpèsè": 4077,
      "ìsìnkú": 4078,
      "Arba": 4079,
      "purọ́": 4080,
      "mẹ́rìnlélógún": 4081,
      "ìsunjáde": 4082,
      "ẹ̀ẹ́dẹ́gbẹ̀rin": 4083,
      "Nahiṣoni": 4084,
      "Debora": 4085,
      "nomu": 4086,
      "tafàtafà": 4087,
      "ìsádi": 4088,
      "Tẹra": 4089,
      "Alábùkún": 4090,
      "èèwọ̀": 4091,
      "ẹgbẹẹgbẹ̀rún": 4092,
      "Èéha": 4093,
      "ẹgbẹ̀ẹ́dọ́gbọ̀n": 4094,
      "dragoni": 4095,
      "gbùngbùn": 4096,
      "tímọ́tímọ́": 4097,
      "Josadaki": 4098,
      "Agrippa": 4099,
      "Enoku": 4100,
      "ọ̀gànjọ́": 4101,
      "Aṣkeloni": 4102,
      "Alàgbà": 4103,
      "awòràwọ̀": 4104,
      "ìtánràn": 4105,
      "márààrún": 4106,
      "Ṣealitieli": 4107,
      "Tekoa": 4108,
      "Debiri": 4109,
      "Hinnomu": 4110,
      "Hanuni": 4111,
      "Pẹpẹ": 4112,
      "Jedutuni": 4113,
      "Sadusi": 4114,
      "Helleni": 4115,
      "Ṣefatia": 4116,
      "Netofa": 4117,
      "Nehemiah": 4118,
      "Kapernaumu": 4119,
      "45": 4120,
      "700": 4121,
      ";“": 4122,
      "Ebedi": 4123,
      "Ib": 4124,
      "Ku": 4125,
      "Kìn": 4126,
      "Lé": 4127,
      "Ot": 4128,
      "Parani": 4129,
      "Tì": 4130,
      "apẹ": 4131,
      "adẹ́tẹ̀": 4132,
      "bàì": 4133,
      "dun": 4134,
      "dìyàn": 4135,
      "erin": 4136,
      "gè": 4137,
      "gorí": 4138,
      "ijó": 4139,
      "igbá": 4140,
      "mbali": 4141,
      "ndi": 4142,
      "opi": 4143,
      "sáàrín": 4144,
      "tra": 4145,
      "Ìwọ̀n": 4146,
      "Ìkìlọ̀": 4147,
      "àmọ́": 4148,
      "àdídùn": 4149,
      "àràárọ̀": 4150,
      "àrankàn": 4151,
      "ásù": 4152,
      "ìbà": 4153,
      "ìdahoro": 4154,
      "ìpéjọpọ̀": 4155,
      "òg": 4156,
      "òjé": 4157,
      "òwìwí": 4158,
      "ǹsá": 4159,
      "Ṣun": 4160,
      "ṣan": 4161,
      "”?": 4162,
      "ẹ́rẹ́": 4163,
      "ọ̀tà": 4164,
      "ọ̀bù": 4165,
      "ọ̀yà": 4166,
      "nijẹ": 4167,
      "mikí": 4168,
      "rẹ̀yóò": 4169,
      "barà": 4170,
      "balla": 4171,
      "ìyẹn": 4172,
      "lérè": 4173,
      "wín": 4174,
      "wíwẹ́": 4175,
      "lólè": 4176,
      "lóró": 4177,
      "dironi": 4178,
      "ohamu": 4179,
      "Jeh": 4180,
      "tarotu": 4181,
      "sillai": 4182,
      "dalóhùn": 4183,
      "dalene": 4184,
      "lẹ́rú": 4185,
      "lẹ́yọ": 4186,
      "alábùkún": 4187,
      "saloni": 4188,
      "kaniah": 4189,
      "seki": 4190,
      "kẹ́gbẹ́": 4191,
      "gido": 4192,
      "tẹ́jú": 4193,
      "rorò": 4194,
      "Dagoni": 4195,
      "aṣọ́nà": 4196,
      "sópù": 4197,
      "ìṣó": 4198,
      "ìji": 4199,
      "ìjẹ̀bi": 4200,
      "ròtẹ́lẹ̀": 4201,
      "rògbò": 4202,
      "lali": 4203,
      "ìdáǹdè": 4204,
      "aláìwà": 4205,
      "aláìlóye": 4206,
      "wéwu": 4207,
      "Betu": 4208,
      "lílù": 4209,
      "Sibe": 4210,
      "olùdarí": 4211,
      "ṣíkọ̀": 4212,
      "Heferi": 4213,
      "Ṣel": 4214,
      "Ṣelo": 4215,
      "Ṣekaniah": 4216,
      "ìwàásù": 4217,
      "Sebede": 4218,
      "Hag": 4219,
      "Tabori": 4220,
      "Peka": 4221,
      "Kedeṣi": 4222,
      "tọrọ": 4223,
      "dínláàdọ́": 4224,
      "Láìpẹ́": 4225,
      "síbẹ̀síbẹ̀": 4226,
      "Resini": 4227,
      "Padani": 4228,
      "Megido": 4229,
      "dẹtí": 4230,
      "nea": 4231,
      "rọrùn": 4232,
      "Abiramu": 4233,
      "ìríjú": 4234,
      "ṣọ̀wọ́n": 4235,
      "ẹrúkùnrin": 4236,
      "Jafeti": 4237,
      "Olùṣọ́": 4238,
      "Ṣim": 4239,
      "Kiri": 4240,
      "abẹ́rẹ́": 4241,
      "ọgọ́fà": 4242,
      "fetísí": 4243,
      "?’“": 4244,
      "Lameki": 4245,
      "Kìkì": 4246,
      "yówù": 4247,
      "ṣófo": 4248,
      "Jerimoti": 4249,
      "Rehobu": 4250,
      "àlàfo": 4251,
      "Barsillai": 4252,
      "Heberi": 4253,
      "Ussi": 4254,
      "Dedani": 4255,
      "ajábó": 4256,
      "Ṣoba": 4257,
      "ọ̀tọ̀ọ̀tọ̀": 4258,
      "Addari": 4259,
      "ìwòyí": 4260,
      "Díẹ̀": 4261,
      "méjìlélọ́gbọ̀n": 4262,
      "ìsáǹsá": 4263,
      "Tẹsaloni": 4264,
      "tinútinú": 4265,
      "Sikri": 4266,
      "oókan": 4267,
      "oówo": 4268,
      "iyì": 4269,
      "àmupara": 4270,
      "Etiopi": 4271,
      "atukọ̀": 4272,
      "ibòmíràn": 4273,
      "Hamori": 4274,
      "Magdalene": 4275,
      "Agagi": 4276,
      "Adullamu": 4277,
      "Olifi": 4278,
      "Kìnnìún": 4279,
      "Ṣunemu": 4280,
      "ballati": 4281,
      "rògbòdìyàn": 4282,
      "Tẹsalonika": 4283,
      "Etiopia": 4284,
      "17": 4285,
      "80": 4286,
      "Akọ": 4287,
      "Aṣi": 4288,
      "Ayọ̀": 4289,
      "Akai": 4290,
      "Akani": 4291,
      "Dẹli": 4292,
      "Dibo": 4293,
      "Dina": 4294,
      "Feli": 4295,
      "Faṣ": 4296,
      "Haṣu": 4297,
      "Ibodè": 4298,
      "Kili": 4299,
      "Mà": 4300,
      "Mó": 4301,
      "Oni": 4302,
      "Tó": 4303,
      "Tún": 4304,
      "aburú": 4305,
      "abẹ": 4306,
      "ajogún": 4307,
      "agbọ́tí": 4308,
      "bna": 4309,
      "eku": 4310,
      "fìdí": 4311,
      "itọ́": 4312,
      "ibà": 4313,
      "ksi": 4314,
      "lka": 4315,
      "mẹ": 4316,
      "nah": 4317,
      "nìwọ̀nyí": 4318,
      "oamu": 4319,
      "omeri": 4320,
      "ppo": 4321,
      "pààlà": 4322,
      "yán": 4323,
      "Ìpè": 4324,
      "àlọ́": 4325,
      "àpọ̀": 4326,
      "àkà": 4327,
      "àbàwọ́n": 4328,
      "èbú": 4329,
      "ìké": 4330,
      "ìdojúkọ": 4331,
      "ìbọ̀rìṣà": 4332,
      "òhun": 4333,
      "òjíṣẹ́": 4334,
      "ófó": 4335,
      "Ẹyin": 4336,
      "ẹ̀kẹrin": 4337,
      "ẹ̀sín": 4338,
      "tiu": 4339,
      "wọnwọ́n": 4340,
      "níjà": 4341,
      "ọ̀dá": 4342,
      "ọ̀dà": 4343,
      "unṣọ": 4344,
      "inoamu": 4345,
      "minítorí": 4346,
      "wọ́de": 4347,
      "ṣeun": 4348,
      "yíyọ́": 4349,
      "ane": 4350,
      "anah": 4351,
      "lọ́rọ̀": 4352,
      "lọ́wọ̀": 4353,
      "lọ́dọọdún": 4354,
      "lélẹ́gbẹ̀": 4355,
      "lélọ́gọ́": 4356,
      "wíwọ̀n": 4357,
      "lóre": 4358,
      "dágbé": 4359,
      "pẹ̀yìn": 4360,
      "mueli": 4361,
      "sọlẹ̀": 4362,
      "Jeko": 4363,
      "deki": 4364,
      "tayọ": 4365,
      "Iskari": 4366,
      "rọ̀jò": 4367,
      "jálẹ̀": 4368,
      "kúkúrú": 4369,
      "dídà": 4370,
      "làjà": 4371,
      "làyé": 4372,
      "fẹ́rẹ": 4373,
      "tàbùkù": 4374,
      "alárà": 4375,
      "alágídí": 4376,
      "gbọ́wọ́": 4377,
      "sani": 4378,
      "kadì": 4379,
      "sedeki": 4380,
      "tẹ́wọ́gbà": 4381,
      "rànwọ́": 4382,
      "ààyò": 4383,
      "ìgbàgbé": 4384,
      "Datani": 4385,
      "Joah": 4386,
      "eliu": 4387,
      "gbani": 4388,
      "òkèèrè": 4389,
      "kokò": 4390,
      "àgé": 4391,
      "Sai": 4392,
      "ìṣọ̀kan": 4393,
      "ìje": 4394,
      "ìpohùnréré": 4395,
      "lùfọkànsìn": 4396,
      "Balógun": 4397,
      "lai": 4398,
      "ìdámárùn": 4399,
      "onídán": 4400,
      "Beriah": 4401,
      "Beori": 4402,
      "Sippo": 4403,
      "olùbá": 4404,
      "olùgbàlà": 4405,
      "olùgbẹ̀san": 4406,
      "olùdámọ̀ràn": 4407,
      "olójú": 4408,
      "kunkun": 4409,
      "Sefani": 4410,
      "Harimu": 4411,
      "ṣaiah": 4412,
      "ẹlẹ́bi": 4413,
      "Tal": 4414,
      "meti": 4415,
      "náání": 4416,
      "Kereti": 4417,
      "tana": 4418,
      "ìpamọ́ra": 4419,
      "Milka": 4420,
      "dínkù": 4421,
      "yọ̀ǹda": 4422,
      "Melki": 4423,
      "ìgbéró": 4424,
      "jìnn": 4425,
      "Kenasi": 4426,
      "ṣàlàyé": 4427,
      "Kidironi": 4428,
      "ẹgbàáwàá": 4429,
      "fehadi": 4430,
      "ìtìsẹ̀": 4431,
      "àbíkẹ́yìn": 4432,
      "ìlera": 4433,
      "Araba": 4434,
      "aboyún": 4435,
      "yẹ̀wò": 4436,
      "ìrúkèrúdò": 4437,
      "Anania": 4438,
      "Tomasi": 4439,
      "mọ́kànlélógún": 4440,
      "lókèèrè": 4441,
      "kíkankíkan": 4442,
      "Aija": 4443,
      "parapọ̀": 4444,
      "Ribla": 4445,
      "Ọ̀dọ́mọ": 4446,
      "hísópù": 4447,
      "Hagai": 4448,
      "kẹtàlá": 4449,
      "Baraba": 4450,
      "Josabadi": 4451,
      "Salmoni": 4452,
      "Salmun": 4453,
      "àpèlé": 4454,
      "aláìláàánú": 4455,
      "Marta": 4456,
      "Biliha": 4457,
      "Sanballati": 4458,
      "ìkẹ́kùn": 4459,
      "Elisabeti": 4460,
      "Mikmasi": 4461,
      "dínlẹ́gbẹ̀rin": 4462,
      "Àádọ́": 4463,
      "ọ̀mọ̀lé": 4464,
      "Stefanu": 4465,
      "Jáde": 4466,
      "Meriba": 4467,
      "Otnieli": 4468,
      "Betueli": 4469,
      "Ṣelomi": 4470,
      "Ṣelofehadi": 4471,
      "Haggi": 4472,
      "Dẹlila": 4473,
      "Diboni": 4474,
      "Feliksi": 4475,
      "Faṣti": 4476,
      "Màlúù": 4477,
      "àpọ̀jẹ": 4478,
      "èbúté": 4479,
      "pẹ̀yìndà": 4480,
      "Iskariotu": 4481,
      "aláràbarà": 4482,
      "Sefaniah": 4483,
      "Melkisedeki": 4484,
      "Salmunna": 4485,
      "):": 4486,
      "32": 4487,
      "62": 4488,
      "66": 4489,
      "Ayé": 4490,
      "Agbègbè": 4491,
      "Bu": 4492,
      "Bé": 4493,
      "Eseri": 4494,
      "Fà": 4495,
      "Hara": 4496,
      "Iyọ̀": 4497,
      "Jahasi": 4498,
      "Kre": 4499,
      "Muṣi": 4500,
      "Po": 4501,
      "Poti": 4502,
      "Ramu": 4503,
      "Wúr": 4504,
      "abú": 4505,
      "ajó": 4506,
      "akíkan": 4507,
      "bana": 4508,
      "edè": 4509,
      "enai": 4510,
      "gara": 4511,
      "ipele": 4512,
      "iṣan": 4513,
      "lfu": 4514,
      "mre": 4515,
      "ngo": 4516,
      "neliu": 4517,
      "olùfọkànsìn": 4518,
      "pọ": 4519,
      "rohamu": 4520,
      "rneliu": 4521,
      "sú": 4522,
      "ttu": 4523,
      "yẹ̀y": 4524,
      "yidà": 4525,
      "Àṣẹ": 4526,
      "Ìgbàlà": 4527,
      "Òpin": 4528,
      "àìy": 4529,
      "àrọ̀": 4530,
      "àrùn": 4531,
      "àkún": 4532,
      "àró": 4533,
      "àtì": 4534,
      "àrọ́": 4535,
      "àìpẹ́": 4536,
      "àyẹ̀wò": 4537,
      "ègbé": 4538,
      "ìjáde": 4539,
      "ìlò": 4540,
      "ìfara": 4541,
      "ìmúra": 4542,
      "ìlòdì": 4543,
      "ìfarahàn": 4544,
      "ìgbádùn": 4545,
      "ìkookò": 4546,
      "òfì": 4547,
      "óní": 4548,
      "óró": 4549,
      "ńṣó": 4550,
      "ṣàìsàn": 4551,
      "ṣàárẹ̀": 4552,
      "ẹfun": 4553,
      "ẹ̀gbẹ̀": 4554,
      "ẹ̀rẹ̀kẹ́": 4555,
      "gbì": 4556,
      "gbiná": 4557,
      "tili": 4558,
      "nína": 4559,
      "títà": 4560,
      "síwá": 4561,
      "síhà": 4562,
      "rẹ̀ó": 4563,
      "àná": 4564,
      "yíya": 4565,
      "fisùn": 4566,
      "fihan": 4567,
      "kíni": 4568,
      "kíkùn": 4569,
      "kísà": 4570,
      "lọ́ọ́": 4571,
      "lọ́dún": 4572,
      "parọ́": 4573,
      "Níwájú": 4574,
      "rẹnítorí": 4575,
      "júwe": 4576,
      "dáyidà": 4577,
      "gẹ́ẹ́": 4578,
      "Jeṣi": 4579,
      "Jerah": 4580,
      "Jerohamu": 4581,
      "Nígbàkúgbà": 4582,
      "jáfara": 4583,
      "reṣi": 4584,
      "dọ̀tí": 4585,
      "díwọ̀n": 4586,
      "siti": 4587,
      "ibia": 4588,
      "kìsì": 4589,
      "dori": 4590,
      "alásè": 4591,
      "saleli": 4592,
      "páyà": 4593,
      "kọ́lé": 4594,
      "sesi": 4595,
      "kimbali": 4596,
      "kégbe": 4597,
      "halẹ̀": 4598,
      "kooro": 4599,
      "bùsi": 4600,
      "Sab": 4601,
      "keda": 4602,
      "keke": 4603,
      "ràpadà": 4604,
      "pẹrẹ": 4605,
      "ìṣè": 4606,
      "ìṣìnà": 4607,
      "Baanah": 4608,
      "fàyà": 4609,
      "lamu": 4610,
      "tìfẹ́": 4611,
      "aláìmòye": 4612,
      "onírun": 4613,
      "àìkọlà": 4614,
      "Bene": 4615,
      "Besaleli": 4616,
      "longo": 4617,
      "olùkórè": 4618,
      "olùfisùn": 4619,
      "olóró": 4620,
      "olónìí": 4621,
      "gbẹ̀bí": 4622,
      "gbẹ̀rún": 4623,
      "ṣírò": 4624,
      "Lebo": 4625,
      "Hele": 4626,
      "Ọ̀pá": 4627,
      "Ọ̀lẹ": 4628,
      "Ọ̀kọ̀ọ̀kan": 4629,
      "Ṣebna": 4630,
      "Seti": 4631,
      "Sefa": 4632,
      "kuri": 4633,
      "kuruku": 4634,
      "Elieli": 4635,
      "Elife": 4636,
      "homeri": 4637,
      "sọ́hùn": 4638,
      "Gitti": 4639,
      "ọlọ́ṣà": 4640,
      "ṣaddai": 4641,
      "Sora": 4642,
      "Soari": 4643,
      "meeli": 4644,
      "Matti": 4645,
      "Mamre": 4646,
      "Mig": 4647,
      "Ọmọkùnrin": 4648,
      "Mero": 4649,
      "Gaali": 4650,
      "Neriah": 4651,
      "rọsi": 4652,
      "Abieseri": 4653,
      "Jab": 4654,
      "àríyá": 4655,
      "ìtànṣán": 4656,
      "Horma": 4657,
      "joyè": 4658,
      "Arki": 4659,
      "ìlekè": 4660,
      "purọsi": 4661,
      "ṣóńṣó": 4662,
      "jéró": 4663,
      "Barnea": 4664,
      "arúfin": 4665,
      "Korneliu": 4666,
      "Nahaṣi": 4667,
      "dójúti": 4668,
      "Beeroti": 4669,
      "fojúdi": 4670,
      "ẹ̀ẹ̀kejì": 4671,
      "dáwọ́lé": 4672,
      "mójú": 4673,
      "ẹ̀kúnwọ́": 4674,
      "Bil": 4675,
      "kẹrìnlélógún": 4676,
      "Aksa": 4677,
      "èèkàn": 4678,
      "fúyẹ́": 4679,
      "ṣàìmá": 4680,
      "féfé": 4681,
      "fẹ́lẹ́fẹ́lẹ́": 4682,
      "aláìlábàwọ́n": 4683,
      "Ammihudu": 4684,
      "Bilidadi": 4685,
      "Immeri": 4686,
      "Ẹranko": 4687,
      "Gerari": 4688,
      "tipasẹ̀": 4689,
      "Apollo": 4690,
      "Meṣeki": 4691,
      "Tubali": 4692,
      "egbèje": 4693,
      "Ṣelemiah": 4694,
      "dínláàádọ́ta": 4695,
      "ìgbátí": 4696,
      "Arfak": 4697,
      "Beliali": 4698,
      "Sakkuri": 4699,
      "ìbàdí": 4700,
      "Akaia": 4701,
      "ìkélé": 4702,
      "Saipurọsi": 4703,
      "Aijaloni": 4704,
      "Ṣelomiti": 4705,
      "Béèrè": 4706,
      "Wúrà": 4707,
      "abúlé": 4708,
      "ajónirun": 4709,
      "akíkanjú": 4710,
      "lfuru": 4711,
      "yẹ̀yẹ́": 4712,
      "àìyedè": 4713,
      "àrólé": 4714,
      "òfìfo": 4715,
      "óníkìsì": 4716,
      "Jerahmeeli": 4717,
      "kurukuru": 4718,
      "250": 4719,
      "33": 4720,
      "36": 4721,
      "Agbo": 4722,
      "Aba": 4723,
      "Adi": 4724,
      "Ale": 4725,
      "Etani": 4726,
      "Eloni": 4727,
      "Ebali": 4728,
      "Etamu": 4729,
      "Fẹ́": 4730,
      "Jakini": 4731,
      "Kàn": 4732,
      "Orin": 4733,
      "Sili": 4734,
      "Tá": 4735,
      "Tú": 4736,
      "Tèmi": 4737,
      "Wọ": 4738,
      "Wàyí": 4739,
      "Yà": 4740,
      "Yan": 4741,
      "asi": 4742,
      "adani": 4743,
      "agbẹ̀bí": 4744,
      "ekè": 4745,
      "geli": 4746,
      "igbì": 4747,
      "odo": 4748,
      "rki": 4749,
      "ski": 4750,
      "spe": 4751,
      "tọrẹ": 4752,
      "tore": 4753,
      "yì": 4754,
      "yigbì": 4755,
      "Àkó": 4756,
      "Àwo": 4757,
      "Èso": 4758,
      "Èṣù": 4759,
      "Ìmọ́lẹ̀": 4760,
      "Ìṣubú": 4761,
      "Ìlérí": 4762,
      "Ìkùùkuu": 4763,
      "àp": 4764,
      "àtún": 4765,
      "àká": 4766,
      "àìdíbàjẹ́": 4767,
      "àkísà": 4768,
      "ìbù": 4769,
      "ìso": 4770,
      "ìfun": 4771,
      "ìkọ̀wé": 4772,
      "ìtẹríba": 4773,
      "ìmòye": 4774,
      "ìdúpẹ́": 4775,
      "ìrẹ̀wẹ̀sì": 4776,
      "ìrọbí": 4777,
      "ìkérora": 4778,
      "ìdọ̀tí": 4779,
      "ògbé": 4780,
      "Ṣàánú": 4781,
      "Ẹgbẹ́": 4782,
      "Ẹgbẹ̀rún": 4783,
      "ọkọ́": 4784,
      "ẹ̀wá": 4785,
      "ẹ̀rín": 4786,
      "wọnwọn": 4787,
      "títẹ̀lé": 4788,
      "nifa": 4789,
      "lábàwọ́n": 4790,
      "lákokò": 4791,
      "miní": 4792,
      "fia": 4793,
      "kíka": 4794,
      "lọ́gbẹ́": 4795,
      "lúgba": 4796,
      "lia": 4797,
      "rẹyóò": 4798,
      "lóko": 4799,
      "dimu": 4800,
      "kọbi": 4801,
      "ohanani": 4802,
      "rúwé": 4803,
      "arai": 4804,
      "araimu": 4805,
      "mondi": 4806,
      "Jeteri": 4807,
      "Jeuṣi": 4808,
      "dere": 4809,
      "ẹ̀yẹ": 4810,
      "rebu": 4811,
      "rene": 4812,
      "rebiah": 4813,
      "kúpa": 4814,
      "simi": 4815,
      "alárékérekè": 4816,
      "saru": 4817,
      "ayẹyẹ": 4818,
      "kọ́ọ̀bù": 4819,
      "kùkù": 4820,
      "Jobabu": 4821,
      "mafeti": 4822,
      "sulfuru": 4823,
      "mẹ́wẹ̀": 4824,
      "konu": 4825,
      "kedere": 4826,
      "ìṣi": 4827,
      "ìpò": 4828,
      "nasi": 4829,
      "natani": 4830,
      "yege": 4831,
      "Ẹ̀rí": 4832,
      "Ẹ̀ka": 4833,
      "gbọin": 4834,
      "aláìlẹ́bi": 4835,
      "onímọ̀": 4836,
      "onídù": 4837,
      "oníṣè": 4838,
      "àìsí": 4839,
      "àìwà": 4840,
      "àìtọ́": 4841,
      "àìsimi": 4842,
      "dọ́mọ": 4843,
      "lílọ": 4844,
      "olùṣọ́nà": 4845,
      "tòru": 4846,
      "tòògbé": 4847,
      "Abdoni": 4848,
      "ṣígun": 4849,
      "ṣípàrọ̀": 4850,
      "kòókò": 4851,
      "Ṣerebiah": 4852,
      "jíjẹ́": 4853,
      "lójúkojú": 4854,
      "junifa": 4855,
      "ṣadi": 4856,
      "ṣaeli": 4857,
      "ànító": 4858,
      "rẹ́run": 4859,
      "ìhàlẹ̀": 4860,
      "pàlàpá": 4861,
      "pàṣípàrọ̀": 4862,
      "dínnírínwó": 4863,
      "Ọmọdé": 4864,
      "ẹgbẹ̀rìn": 4865,
      "Metu": 4866,
      "láìṣe": 4867,
      "polongo": 4868,
      "yangàn": 4869,
      "wẹ̀mọ́": 4870,
      "Kad": 4871,
      "ìwọ̀nba": 4872,
      "ìpínlẹ̀": 4873,
      "Geberi": 4874,
      "humu": 4875,
      "gbígbọ́": 4876,
      "gbígba": 4877,
      "ìrírí": 4878,
      "Rafa": 4879,
      "farawé": 4880,
      "kíndìnrín": 4881,
      "Lasaru": 4882,
      "Reueli": 4883,
      "àìníye": 4884,
      "Aṣtore": 4885,
      "fọ́nnu": 4886,
      "ewébẹ̀": 4887,
      "Tola": 4888,
      "Tofeti": 4889,
      "ìbímọ": 4890,
      "Ṣimea": 4891,
      "Asmafeti": 4892,
      "àṣepé": 4893,
      "Karmi": 4894,
      "apata": 4895,
      "Ṣobali": 4896,
      "Ariwo": 4897,
      "Adaiah": 4898,
      "karùnún": 4899,
      "ìsásí": 4900,
      "Pupa": 4901,
      "Naama": 4902,
      "Kaiafa": 4903,
      "ìkanra": 4904,
      "iyèméjì": 4905,
      "àkéekè": 4906,
      "pẹ̀lẹ́pẹ̀lẹ́": 4907,
      "dàrúdàpọ̀": 4908,
      "almondi": 4909,
      "pùrọ́": 4910,
      "Sebadiah": 4911,
      "Ṣamma": 4912,
      "àjẹyó": 4913,
      "aláìlẹ́gàn": 4914,
      "Ààrùn": 4915,
      "iyùn": 4916,
      "Makkeda": 4917,
      "Kọrinti": 4918,
      "ìrẹ́pọ̀": 4919,
      "ìtúsílẹ̀": 4920,
      "safire": 4921,
      "Fetísílẹ̀": 4922,
      "akóni": 4923,
      "Tìrẹ": 4924,
      "Jehohanani": 4925,
      "Jekoniah": 4926,
      "àgékù": 4927,
      "Krete": 4928,
      "mójútó": 4929,
      "Arfakṣadi": 4930,
      "Àkókò": 4931,
      "kùkùté": 4932,
      "mẹ́wẹ̀ẹ̀wá": 4933,
      "onídùúró": 4934,
      "oníṣègùn": 4935,
      "pàlàpálá": 4936,
      "Aṣtoreti": 4937,
      "àkéekèe": 4938,
      ",,": 4939,
      "15": 4940,
      "42": 4941,
      "52": 4942,
      ";,": 4943,
      ";’": 4944,
      "Ami": 4945,
      "Binnu": 4946,
      "Dori": 4947,
      "Ed": 4948,
      "Ebi": 4949,
      "Esi": 4950,
      "Efa": 4951,
      "Eṣi": 4952,
      "Enani": 4953,
      "Ira": 4954,
      "Ittai": 4955,
      "Jẹ": 4956,
      "Jahati": 4957,
      "Ká": 4958,
      "Kèké": 4959,
      "Mara": 4960,
      "Okùn": 4961,
      "Ofiri": 4962,
      "Onani": 4963,
      "Pàṣẹ": 4964,
      "Soh": 4965,
      "am": 4966,
      "ala": 4967,
      "asọ̀rọ̀": 4968,
      "eè": 4969,
      "ewú": 4970,
      "egbin": 4971,
      "foni": 4972,
      "iṣi": 4973,
      "kah": 4974,
      "mìnà": 4975,
      "omu": 4976,
      "oru": 4977,
      "sga": 4978,
      "yẹn": 4979,
      "Àkọ́": 4980,
      "Ìṣ": 4981,
      "Ìrí": 4982,
      "Ìjọ": 4983,
      "Ìyàn": 4984,
      "Ìwẹ̀": 4985,
      "Ìrètí": 4986,
      "Ìgbéraga": 4987,
      "Òṣù": 4988,
      "àjẹ́": 4989,
      "àmọ̀": 4990,
      "àtẹ̀lé": 4991,
      "àfẹ́rí": 4992,
      "àfiná": 4993,
      "àfarawé": 4994,
      "èwo": 4995,
      "ìdà": 4996,
      "ìpéjọ": 4997,
      "ìkéde": 4998,
      "ìkọ́ni": 4999,
      "ìbora": 5000,
      "ìrànwọ́": 5001,
      "òpùrọ́": 5002,
      "órá": 5003,
      "ǹkà": 5004,
      "ǹgbẹ": 5005,
      "Ṣaroni": 5006,
      "Ẹnì": 5007,
      "ẹdọ́gbọ̀n": 5008,
      "Ọrọ̀": 5009,
      "’;": 5010,
      "”;": 5011,
      "ẹ̀tà": 5012,
      "tiah": 5013,
      "ọ́bodè": 5014,
      "nílà": 5015,
      "nípá": 5016,
      "níkọ̀": 5017,
      "nígbè": 5018,
      "níná": 5019,
      "níláárí": 5020,
      "ọ̀kàn": 5021,
      "ọ̀bẹ": 5022,
      "niyóò": 5023,
      "àwọntí": 5024,
      "láyọ̀": 5025,
      "rani": 5026,
      "raimu": 5027,
      "rẹ̀kí": 5028,
      "rẹ̀láti": 5029,
      "rẹ̀nítorí": 5030,
      "àtiwọ": 5031,
      "gboyà": 5032,
      "wọ́lé": 5033,
      "wọ́pọ̀": 5034,
      "áàdì": 5035,
      "fimu": 5036,
      "fiah": 5037,
      "ùngbẹ": 5038,
      "kíkó": 5039,
      "lọ́la": 5040,
      "lọ́gọ̀": 5041,
      "pasi": 5042,
      "lúú": 5043,
      "wáàti": 5044,
      "liati": 5045,
      "kanlẹ̀": 5046,
      "léra": 5047,
      "léláàdọ́": 5048,
      "wíwọ́": 5049,
      "wíwà": 5050,
      "lópó": 5051,
      "waa": 5052,
      "bini": 5053,
      "mulẹ̀": 5054,
      "rúdu": 5055,
      "more": 5056,
      "moṣi": 5057,
      "taki": 5058,
      "tagbára": 5059,
      "taoli": 5060,
      "tabana": 5061,
      "rei": 5062,
      "rekiah": 5063,
      "ahu": 5064,
      "dídé": 5065,
      "dígí": 5066,
      "làkàkà": 5067,
      "sika": 5068,
      "dasán": 5069,
      "lẹ́ṣẹ̀": 5070,
      "legi": 5071,
      "boa": 5072,
      "alárìn": 5073,
      "aláṣọ": 5074,
      "aláìṣòdodo": 5075,
      "tóóró": 5076,
      "pála": 5077,
      "seti": 5078,
      "kẹ́ṣẹ": 5079,
      "yèméjì": 5080,
      "kùmọ̀": 5081,
      "ṣẹ̀tàn": 5082,
      "kori": 5083,
      "àga": 5084,
      "rùdu": 5085,
      "bùba": 5086,
      "Sabadi": 5087,
      "aṣọ́bodè": 5088,
      "ìṣàkóso": 5089,
      "lẹbẹ": 5090,
      "lami": 5091,
      "lawọ́": 5092,
      "laleli": 5093,
      "naimu": 5094,
      "tànkálẹ̀": 5095,
      "tìmù": 5096,
      "aláìlé": 5097,
      "oníye": 5098,
      "oníjà": 5099,
      "oníwàásù": 5100,
      "rìnrìn": 5101,
      "àìrékọjá": 5102,
      "àìlọ́wọ̀": 5103,
      "tọ̀sán": 5104,
      "lítà": 5105,
      "olùtùnú": 5106,
      "fari": 5107,
      "olóore": 5108,
      "pòkìkí": 5109,
      "pòórá": 5110,
      "pòǹgbẹ": 5111,
      "tulẹ̀": 5112,
      "pópó": 5113,
      "fío": 5114,
      "fífọ́": 5115,
      "Ọ̀tẹ̀": 5116,
      "tenai": 5117,
      "Ṣemi": 5118,
      "dópin": 5119,
      "kubu": 5120,
      "Hafi": 5121,
      "Hase": 5122,
      "Haro": 5123,
      "funra": 5124,
      "Elia": 5125,
      "Elimu": 5126,
      "gbòó": 5127,
      "púpọ̀púpọ̀": 5128,
      "ṣagbe": 5129,
      "ẹlẹ́mìí": 5130,
      "Tapu": 5131,
      "ibùjẹ": 5132,
      "Soko": 5133,
      "Pedaiah": 5134,
      "Pelegi": 5135,
      "meu": 5136,
      "Kebari": 5137,
      "Kemoṣi": 5138,
      "Maoni": 5139,
      "Májẹ̀mú": 5140,
      "pàla": 5141,
      "pàtẹ́wọ́": 5142,
      "jàre": 5143,
      "Rehumu": 5144,
      "foti": 5145,
      "ẹgbẹ̀tà": 5146,
      "ẹgbẹ̀fà": 5147,
      "Mehu": 5148,
      "Memfi": 5149,
      "Menah": 5150,
      "Gama": 5151,
      "Galati": 5152,
      "Filistia": 5153,
      "dẹkùn": 5154,
      "láìjẹ́": 5155,
      "ṣoore": 5156,
      "yanjú": 5157,
      "àkọ́rọ̀": 5158,
      "Títóbi": 5159,
      "ìlàjà": 5160,
      "ìlẹ̀kẹ̀": 5161,
      "Gede": 5162,
      "gbígbà": 5163,
      "pípọ́n": 5164,
      "Jaredi": 5165,
      "ipadò": 5166,
      "èédú": 5167,
      "ṣàwárí": 5168,
      "òṣùṣú": 5169,
      "gómìnà": 5170,
      "Olùdáǹdè": 5171,
      "Ṣiṣaki": 5172,
      "Kirene": 5173,
      "aláìníláárí": 5174,
      "Ṣafati": 5175,
      "Jonadabu": 5176,
      "Asaiah": 5177,
      "hámọ́ra": 5178,
      "Pile": 5179,
      "Pisga": 5180,
      "Goliati": 5181,
      "òǹrorò": 5182,
      "àlàpà": 5183,
      "jẹ́ẹ́jẹ́": 5184,
      "àbájáde": 5185,
      "hóró": 5186,
      "Meraṣa": 5187,
      "Niko": 5188,
      "Elati": 5189,
      "ìjìnnì": 5190,
      "àṣíborí": 5191,
      "sínwín": 5192,
      "ìfini": 5193,
      "Gilboa": 5194,
      "Adah": 5195,
      "Bikri": 5196,
      "ìfẹnu": 5197,
      "alábáṣiṣẹ́": 5198,
      "méjìlélógójì": 5199,
      "méjìléláàdọ́": 5200,
      "Akkubu": 5201,
      "agbárí": 5202,
      "Maakati": 5203,
      "Puti": 5204,
      "Ahọ́n": 5205,
      "ìsọdahoro": 5206,
      "dínlọ́gọ́rin": 5207,
      "yàgò": 5208,
      "Marku": 5209,
      "ìṣísẹ̀": 5210,
      "Eṣtaoli": 5211,
      "ìtọ́ni": 5212,
      "ìtọ́sọ́nà": 5213,
      "àìwúkàrà": 5214,
      "Afeni": 5215,
      "Afeki": 5216,
      "Ṣíṣe": 5217,
      "Bosra": 5218,
      "kànnàkànnà": 5219,
      "adití": 5220,
      "Ibùgbé": 5221,
      "Oholibama": 5222,
      "Lẹ́sẹ̀kan": 5223,
      "Mahalaleli": 5224,
      "gèlè": 5225,
      "Kilikia": 5226,
      "anesi": 5227,
      "lélẹ́gbẹ̀ta": 5228,
      "jìnnìjìnnì": 5229,
      "Ọ̀dọ́mọkùnrin": 5230,
      "Fàdákà": 5231,
      "Sabdi": 5232,
      "pẹrẹsẹ": 5233,
      "fàyàfà": 5234,
      "Mattitiah": 5235,
      "speri": 5236,
      "àpáàdì": 5237,
      "ìṣirò": 5238,
      "Kadmieli": 5239,
      "Binnui": 5240,
      "Edrei": 5241,
      "amòfin": 5242,
      "eèsún": 5243,
      "àfinásun": 5244,
      "níkọ̀kọ̀": 5245,
      "nígbèkùn": 5246,
      "rúdurùdu": 5247,
      "tabanaku": 5248,
      "sikamore": 5249,
      "alárìnkiri": 5250,
      "pálapàla": 5251,
      "kẹ́ṣẹkẹ̀": 5252,
      "Tapua": 5253,
      "Memfisi": 5254,
      "Menahemu": 5255,
      "Galatia": 5256,
      "74": 5257,
      "75": 5258,
      "?“": 5259,
      "Are": 5260,
      "Alóre": 5261,
      "Bojú": 5262,
      "Egungun": 5263,
      "Eṣú": 5264,
      "Gí": 5265,
      "Gbò": 5266,
      "Hodi": 5267,
      "It": 5268,
      "Ikoni": 5269,
      "Jó": 5270,
      "Kẹ́": 5271,
      "Kin": 5272,
      "Kana": 5273,
      "Lusi": 5274,
      "Libia": 5275,
      "Mu": 5276,
      "Olóòtítọ́": 5277,
      "Ofira": 5278,
      "Pọn": 5279,
      "Tẹ̀": 5280,
      "Teli": 5281,
      "Urimu": 5282,
      "abi": 5283,
      "alu": 5284,
      "apu": 5285,
      "adarí": 5286,
      "afá": 5287,
      "afàyàfà": 5288,
      "dọdẹ": 5289,
      "ebu": 5290,
      "epo": 5291,
      "fanesi": 5292,
      "gaṣi": 5293,
      "hún": 5294,
      "hiah": 5295,
      "igún": 5296,
      "jèjì": 5297,
      "kki": 5298,
      "lèmi": 5299,
      "lànà": 5300,
      "orún": 5301,
      "oenai": 5302,
      "pimu": 5303,
      "rfai": 5304,
      "rgaṣi": 5305,
      "tùn": 5306,
      "uri": 5307,
      "ueli": 5308,
      "yanu": 5309,
      "Àkọsílẹ̀": 5310,
      "Ìwọ́": 5311,
      "Ìpa": 5312,
      "Ìdá": 5313,
      "Ìjì": 5314,
      "Ìtẹ́": 5315,
      "Ìrékọjá": 5316,
      "Ìròyìn": 5317,
      "Ìyàwó": 5318,
      "Ìpọ́njú": 5319,
      "Òní": 5320,
      "Òye": 5321,
      "Òòrùn": 5322,
      "àpa": 5323,
      "àbọ́": 5324,
      "àbàtà": 5325,
      "álé": 5326,
      "ègé": 5327,
      "èṣì": 5328,
      "èsúr": 5329,
      "ìpé": 5330,
      "ìlù": 5331,
      "ìré": 5332,
      "ìgbóná": 5333,
      "ìgbẹ̀san": 5334,
      "ìjẹ́wọ́": 5335,
      "ídí": 5336,
      "íwájú": 5337,
      "ògbó": 5338,
      "òfò": 5339,
      "ǹpé": 5340,
      "ǹréré": 5341,
      "ẹrọ̀": 5342,
      "Ọgọ́": 5343,
      "ọbẹ̀": 5344,
      "ọjọ": 5345,
      "ẹ̀kẹ́": 5346,
      "ẹ̀gbọ̀n": 5347,
      "ẹ̀sìn": 5348,
      "ẹ̀rún": 5349,
      "tipẹ́": 5350,
      "níkẹyìn": 5351,
      "níyàwó": 5352,
      "títẹ́": 5353,
      "títún": 5354,
      "ọ̀wà": 5355,
      "nilọ́wọ́": 5356,
      "ríta": 5357,
      "lásìkò": 5358,
      "rajọ": 5359,
      "mibí": 5360,
      "miláti": 5361,
      "mièmi": 5362,
      "sípa": 5363,
      "rẹ̀yìn": 5364,
      "rẹ̀òun": 5365,
      "wọ́sílẹ̀": 5366,
      "ṣemu": 5367,
      "péré": 5368,
      "anaki": 5369,
      "kíkà": 5370,
      "orígun": 5371,
      "lọ́jọ̀": 5372,
      "payá": 5373,
      "wálẹ̀": 5374,
      "wáláti": 5375,
      "lieli": 5376,
      "lérò": 5377,
      "báwọ̀nyí": 5378,
      "wíjọ́": 5379,
      "wíwo": 5380,
      "wíwú": 5381,
      "lóg": 5382,
      "lókùú": 5383,
      "lógbòó": 5384,
      "dákú": 5385,
      "dira": 5386,
      "múni": 5387,
      "waja": 5388,
      "kọlé": 5389,
      "kùnsínú": 5390,
      "mutí": 5391,
      "ìwọra": 5392,
      "mímọ": 5393,
      "rúgbó": 5394,
      "sọjí": 5395,
      "Jeṣaiah": 5396,
      "tako": 5397,
      "jẹrà": 5398,
      "dalẹ̀": 5399,
      "data": 5400,
      "kónì": 5401,
      "lẹ́yà": 5402,
      "lẹ́kọ̀ọ́": 5403,
      "tàpá": 5404,
      "tàkúté": 5405,
      "bok": 5406,
      "boimu": 5407,
      "doli": 5408,
      "alákọ́kọ́": 5409,
      "safu": 5410,
      "sabadi": 5411,
      "ayà": 5412,
      "mọ̀kan": 5413,
      "sela": 5414,
      "semati": 5415,
      "tẹ́kẹ́tẹ́": 5416,
      "rùnún": 5417,
      "ṣẹlẹ́yà": 5418,
      "Dabe": 5419,
      "wòsàn": 5420,
      "dènà": 5421,
      "òkèlè": 5422,
      "dìbò": 5423,
      "haapu": 5424,
      "kosi": 5425,
      "koko": 5426,
      "àgàn": 5427,
      "aṣíwájú": 5428,
      "kete": 5429,
      "sódò": 5430,
      "ìjayà": 5431,
      "ìpọ́n": 5432,
      "woro": 5433,
      "Baálẹ̀": 5434,
      "Basemati": 5435,
      "ròrò": 5436,
      "fàro": 5437,
      "fàtu": 5438,
      "nadabu": 5439,
      "tìtorí": 5440,
      "búburúṣùgbọ́n": 5441,
      "aláìnígbàgbọ́": 5442,
      "onírò": 5443,
      "onígboyà": 5444,
      "àìlọ́mọ": 5445,
      "àìṣẹ̀tàn": 5446,
      "Berekiah": 5447,
      "lílò": 5448,
      ".’“": 5449,
      "famu": 5450,
      "jasperi": 5451,
      "turi": 5452,
      "fífẹ́": 5453,
      "fífà": 5454,
      "ṣíwọ́": 5455,
      "ṣíji": 5456,
      "Hena": 5457,
      "Ọ̀rẹ́": 5458,
      "teni": 5459,
      "tetra": 5460,
      "beari": 5461,
      "yẹtí": 5462,
      "Ṣeboimu": 5463,
      "Serah": 5464,
      "gísẹ̀": 5465,
      "gígàn": 5466,
      "kẹ̀kẹ̀": 5467,
      "ẹnìké": 5468,
      "Ham": 5469,
      "Elimeleki": 5470,
      "Elioenai": 5471,
      "ìbálòpọ̀": 5472,
      "Girgaṣi": 5473,
      "ọlọ́tẹ̀": 5474,
      "ṣaworo": 5475,
      "ẹlẹ́kẹta": 5476,
      "Tafanesi": 5477,
      "Taanaki": 5478,
      "sana": 5479,
      "sanwó": 5480,
      "Sofari": 5481,
      "ṣittimu": 5482,
      "Lefitani": 5483,
      "Mallu": 5484,
      "Massa": 5485,
      "Matiu": 5486,
      "!”“": 5487,
      "tanù": 5488,
      "ìpakúpa": 5489,
      "Miṣaeli": 5490,
      "agé": 5491,
      "agara": 5492,
      "Jehonadabu": 5493,
      "láìfi": 5494,
      "láìbẹ̀rù": 5495,
      "láìròtẹ́lẹ̀": 5496,
      "ṣomu": 5497,
      "poli": 5498,
      "gbámú": 5499,
      "gbáko": 5500,
      "nereti": 5501,
      "pínyà": 5502,
      "hòhò": 5503,
      "dudu": 5504,
      "Tiṣ": 5505,
      "Gedori": 5506,
      "ṣèèṣì": 5507,
      "ìkóríta": 5508,
      "rọ́kẹ̀kẹ̀": 5509,
      "àádọ́tà": 5510,
      "àádọ́rùn": 5511,
      "àádọ́jọ": 5512,
      "Jaeli": 5513,
      "Jamini": 5514,
      "Jarma": 5515,
      "Jabini": 5516,
      "èéha": 5517,
      "góje": 5518,
      "Olùràpadà": 5519,
      "Ṣaddai": 5520,
      "farahan": 5521,
      "kángun": 5522,
      "kánná": 5523,
      "ṣìpẹ̀": 5524,
      "Hogla": 5525,
      "ìtulẹ̀": 5526,
      "Asareeli": 5527,
      "Laadani": 5528,
      "Laiṣi": 5529,
      "lẹ́ẹ̀méjì": 5530,
      "aporo": 5531,
      "Lójijì": 5532,
      "ìtẹ̀mọ́lẹ̀": 5533,
      "Gomeri": 5534,
      "òǹgò": 5535,
      "Tema": 5536,
      "Tebesi": 5537,
      "Herodia": 5538,
      "Meraioti": 5539,
      "ìbílẹ̀": 5540,
      "kọ́kọ́rọ́": 5541,
      "Ṣua": 5542,
      "Asrieli": 5543,
      "ṣánlẹ̀": 5544,
      "fùfù": 5545,
      "Delaiah": 5546,
      "Elnatani": 5547,
      "ẹ̀ẹ̀rùn": 5548,
      "ìṣẹ́po": 5549,
      "Ṣoani": 5550,
      "Gerṣomu": 5551,
      "Adma": 5552,
      "Kiriataimu": 5553,
      "Arieli": 5554,
      "Big": 5555,
      "Diṣoni": 5556,
      "méjìlélọ́gọ́": 5557,
      "Akbori": 5558,
      "àgbájọ": 5559,
      "ọ̀wọ̀ọ̀wọ́": 5560,
      "kẹtàlélógún": 5561,
      "Èéfín": 5562,
      "Ahinoamu": 5563,
      "ìjóná": 5564,
      "Libni": 5565,
      "làpálàpá": 5566,
      "aláìlẹ́ṣẹ̀": 5567,
      "ọ̀dọ́mọdékùnrin": 5568,
      "Enoṣi": 5569,
      "ìrẹ́jẹ": 5570,
      "Aseli": 5571,
      "Aseka": 5572,
      "Gbígbéga": 5573,
      "jàgan": 5574,
      "jàgídí": 5575,
      "ìmísí": 5576,
      "ìpadàbọ̀": 5577,
      "ìtújáde": 5578,
      "Lotani": 5579,
      "ìrẹ̀sílẹ̀": 5580,
      "tipátipá": 5581,
      "kọ̀lọ̀kọ̀lọ̀": 5582,
      "Hanoku": 5583,
      "Mélòó": 5584,
      "Nobu": 5585,
      "apẹja": 5586,
      "àmọ́dún": 5587,
      "ògòǹgò": 5588,
      "ìjiyàn": 5589,
      "Sibeoni": 5590,
      "Ṣimroni": 5591,
      "Sippori": 5592,
      "Arabah": 5593,
      "Potiferi": 5594,
      "àkúnwọ́sílẹ̀": 5595,
      "ẹ̀gbẹ̀gbẹ́": 5596,
      "Sefarfai": 5597,
      "Elifeleti": 5598,
      "Jabbok": 5599,
      "Abarimu": 5600,
      "Silipa": 5601,
      "Metusela": 5602,
      "akóniṣiṣẹ́": 5603,
      "Esioni": 5604,
      "Ẹnìkọ̀ọ̀kan": 5605,
      "oníyebíye": 5606,
      "Hafila": 5607,
      "Gamalieli": 5608,
      "ìfinijoyè": 5609,
      "Gbòǹgbò": 5610,
      "Ikoniomu": 5611,
      "Jókòó": 5612,
      "Kẹ́tẹ́kẹ́tẹ́": 5613,
      "Kinnereti": 5614,
      "afárá": 5615,
      "orúnkún": 5616,
      "àbọ́pa": 5617,
      "èsúró": 5618,
      "ìpéǹpé": 5619,
      "ògbólógbòó": 5620,
      "ẹrọ̀fọ̀": 5621,
      "nilọ́wọ́gbà": 5622,
      "lókùúta": 5623,
      "tetrarki": 5624,
      "Malluki": 5625,
      "Jarmatu": 5626,
      "jàgídíjàgan": 5627,
      "Sefarfaimi": 5628,
      "ìpéǹpéjú": 5629,
      ".‘": 5630,
      "11": 5631,
      "110": 5632,
      "28": 5633,
      "35": 5634,
      "72": 5635,
      "90": 5636,
      "95": 5637,
      "Agbọ̀n": 5638,
      "Aku": 5639,
      "Aiah": 5640,
      "Atarotu": 5641,
      "Ateni": 5642,
      "Bọ́": 5643,
      "Busi": 5644,
      "Bahu": 5645,
      "Dẹ": 5646,
      "Eseki": 5647,
      "Fa": 5648,
      "Gbẹ́": 5649,
      "Jaṣu": 5650,
      "Jahi": 5651,
      "Koríko": 5652,
      "Kẹ̀kẹ́": 5653,
      "Ly": 5654,
      "Mò": 5655,
      "Man": 5656,
      "Odi": 5657,
      "Ogún": 5658,
      "Oòrùn": 5659,
      "Orebu": 5660,
      "Pri": 5661,
      "Pín": 5662,
      "Pahati": 5663,
      "Sún": 5664,
      "Sọ̀rọ̀": 5665,
      "Tro": 5666,
      "Tahati": 5667,
      "Wà": 5668,
      "Wú": 5669,
      "af": 5670,
      "agun": 5671,
      "aká": 5672,
      "afúnrúgbìn": 5673,
      "arìnrìn": 5674,
      "bọ́n": 5675,
      "drá": 5676,
      "dde": 5677,
      "ekì": 5678,
      "fìn": 5679,
      "fọkàn": 5680,
      "fohùn": 5681,
      "gàà": 5682,
      "háà": 5683,
      "hẹlẹ": 5684,
      "imọ̀": 5685,
      "jan": 5686,
      "lti": 5687,
      "lli": 5688,
      "ndrá": 5689,
      "olú": 5690,
      "oyún": 5691,
      "ppimu": 5692,
      "sáà": 5693,
      "tòun": 5694,
      "Àì": 5695,
      "Àbí": 5696,
      "Àbá": 5697,
      "Àìṣe": 5698,
      "Àlejò": 5699,
      "Ère": 5700,
      "Èkínní": 5701,
      "Ìbí": 5702,
      "Ìwo": 5703,
      "Ìjà": 5704,
      "Ìrora": 5705,
      "Ìgbàgbọ́": 5706,
      "Ìmọ̀ràn": 5707,
      "Ìtara": 5708,
      "Òkìkí": 5709,
      "Òwìwí": 5710,
      "àsọ": 5711,
      "àfẹ́": 5712,
      "àfihàn": 5713,
      "àfojúdi": 5714,
      "àkọlé": 5715,
      "ìmẹ́": 5716,
      "ìlépa": 5717,
      "ìdùbúlẹ̀": 5718,
      "ìdin": 5719,
      "ìfọ́nnu": 5720,
      "ìdàrúdàpọ̀": 5721,
      "ìkùnsínú": 5722,
      "ògbójú": 5723,
      "ńgó": 5724,
      "ǹbá": 5725,
      "ṣojú": 5726,
      "Ẹṣin": 5727,
      "Ọlá": 5728,
      "Ọkọ": 5729,
      "Ọfà": 5730,
      "’?”": 5731,
      "ẹ̀dà": 5732,
      "ẹ̀là": 5733,
      "gbàn": 5734,
      "tia": 5735,
      "tijú": 5736,
      "tiná": 5737,
      "wọntí": 5738,
      "wọnkí": 5739,
      "ọ̀fun": 5740,
      "ọ̀tun": 5741,
      "ọ̀gọ̀": 5742,
      "ọ̀dẹ̀dẹ̀": 5743,
      "ọ̀gọ": 5744,
      "ọ̀fìn": 5745,
      "nin": 5746,
      "àwọnènìyàn": 5747,
      "láyè": 5748,
      "lágara": 5749,
      "rai": 5750,
      "mití": 5751,
      "miìwọ": 5752,
      "sísán": 5753,
      "rẹ̀ni": 5754,
      "péle": 5755,
      "yíyí": 5756,
      "yíyan": 5757,
      "bíbú": 5758,
      "bíbọ": 5759,
      "gbàa": 5760,
      "ùnpè": 5761,
      "kíṣẹ́": 5762,
      "lẹ̀mọ́": 5763,
      "mọdọ́mọ": 5764,
      "lọ́rẹ": 5765,
      "lọ́ràá": 5766,
      "padi": 5767,
      "parọ́rọ́": 5768,
      "lúbàtà": 5769,
      "lúgọ": 5770,
      "rẹtí": 5771,
      "rẹèmi": 5772,
      "lélógójì": 5773,
      "lófin": 5774,
      "lọàti": 5775,
      "yínkeke": 5776,
      "riti": 5777,
      "rioni": 5778,
      "rikamu": 5779,
      "kùnfà": 5780,
      "kùnrẹ́rẹ́": 5781,
      "mándrá": 5782,
      "pẹ̀pẹ̀": 5783,
      "gbédè": 5784,
      "moye": 5785,
      "Jeka": 5786,
      "Jedia": 5787,
      "demu": 5788,
      "tata": 5789,
      "jìlá": 5790,
      "jìjà": 5791,
      "reseri": 5792,
      "remoti": 5793,
      "pọ̀kọ́": 5794,
      "lùmọ̀": 5795,
      "dída": 5796,
      "dídè": 5797,
      "sibu": 5798,
      "dafiah": 5799,
      "darúgbó": 5800,
      "kópa": 5801,
      "kógun": 5802,
      "kórajọ": 5803,
      "kèé": 5804,
      "lẹ́kùnrẹ́rẹ́": 5805,
      "fẹ́ẹ́rẹ́": 5806,
      "tàsé": 5807,
      "aláàárẹ̀": 5808,
      "nígbàkígbà": 5809,
      "More": 5810,
      "Mosa": 5811,
      "kati": 5812,
      "tóní": 5813,
      "kànìn": 5814,
      "ojúran": 5815,
      "ojúlùmọ̀": 5816,
      "tẹ́kùn": 5817,
      "tẹ́gùn": 5818,
      "tẹ́ẹ́rẹ́": 5819,
      "roṣi": 5820,
      "ṣẹkẹ́ṣẹkẹ̀": 5821,
      "sílẹ̀tí": 5822,
      "kúnná": 5823,
      "maga": 5824,
      "ṣẹ̀fẹ̀": 5825,
      "dìwọ́n": 5826,
      "haili": 5827,
      "kolu": 5828,
      "ogunlọ́gọ̀": 5829,
      "Sare": 5830,
      "aṣojú": 5831,
      "kea": 5832,
      "ńláàti": 5833,
      "kálà": 5834,
      "káká": 5835,
      "wolẹ̀": 5836,
      "Baal": 5837,
      "gai": 5838,
      "gadi": 5839,
      "láàmú": 5840,
      "láàyè": 5841,
      "lagbà": 5842,
      "pèpéle": 5843,
      "ìdíwọ́": 5844,
      "gbọnin": 5845,
      "aláìmọ̀kan": 5846,
      "aláìgbédè": 5847,
      "onírin": 5848,
      "oníkẹ̀kẹ́": 5849,
      "oníbàá": 5850,
      "oníkókó": 5851,
      "Bekeri": 5852,
      "Bebai": 5853,
      "Beseki": 5854,
      "ìhunṣọ": 5855,
      "loe": 5856,
      "tọ̀wọ̀": 5857,
      "gooro": 5858,
      "lílé": 5859,
      "Sib": 5860,
      "ṣùtì": 5861,
      "olùrékọjá": 5862,
      "olùrẹ́run": 5863,
      "olóhùn": 5864,
      "pela": 5865,
      "tura": 5866,
      "turu": 5867,
      "sókèsí": 5868,
      "ìyàlẹ́nu": 5869,
      "ṣíbí": 5870,
      "ṣíṣẹ́": 5871,
      "ṣíṣí": 5872,
      "temo": 5873,
      "bejì": 5874,
      "beeli": 5875,
      "Ṣeani": 5876,
      "Ṣebani": 5877,
      "jíjìnnà": 5878,
      "Seredi": 5879,
      "Seebu": 5880,
      "yànjiyàn": 5881,
      "Haba": 5882,
      "Hare": 5883,
      "àkótán": 5884,
      "horo": 5885,
      "sọ́kàn": 5886,
      "sọ́tùn": 5887,
      "Gihoni": 5888,
      "màmá": 5889,
      "màrè": 5890,
      "ẹlẹ́kejì": 5891,
      "Penieli": 5892,
      "Pekah": 5893,
      "Òkunàti": 5894,
      "àgbàlagbà": 5895,
      "Kede": 5896,
      "Olólùfẹ́": 5897,
      "Matta": 5898,
      "pàkúté": 5899,
      "ìpalẹ̀mọ́": 5900,
      "Mib": 5901,
      "dínló": 5902,
      "Láì": 5903,
      "Naioti": 5904,
      "Natana": 5905,
      "yéké": 5906,
      "Pallu": 5907,
      "Paroṣi": 5908,
      "Meremoti": 5909,
      "Nebai": 5910,
      "ṣokùnfà": 5911,
      "Abibu": 5912,
      "Abihaili": 5913,
      "pínpín": 5914,
      "aribu": 5915,
      "Tigla": 5916,
      "Gedi": 5917,
      "Gema": 5918,
      "gbígbéga": 5919,
      "ìjàkadì": 5920,
      "jìnà": 5921,
      "píparun": 5922,
      "Kenani": 5923,
      "Raa": 5924,
      "òṣùmàrè": 5925,
      "àríyànjiyàn": 5926,
      "góńgó": 5927,
      "Ṣittimu": 5928,
      "Kiṣoni": 5929,
      "Ṣareseri": 5930,
      "topasi": 5931,
      "Ahio": 5932,
      "Ahieseri": 5933,
      "olóòótọ́": 5934,
      "Betisai": 5935,
      "Hosana": 5936,
      "Hodafiah": 5937,
      "gumu": 5938,
      "àwopọ̀kọ́": 5939,
      "bójú": 5940,
      "Gibetoni": 5941,
      "Arte": 5942,
      "Arpadi": 5943,
      "ìgbì": 5944,
      "lẹ́ẹ̀mẹ́ta": 5945,
      "Aṣtarotu": 5946,
      "Aradi": 5947,
      "Aramai": 5948,
      "Eleasa": 5949,
      "ìrọ̀rùn": 5950,
      "mẹ́tàlélọ́gbọ̀n": 5951,
      "Huṣa": 5952,
      "Huramu": 5953,
      "maritili": 5954,
      "mọ́kànlélọ́gbọ̀n": 5955,
      "Ṣuri": 5956,
      "Ṣuali": 5957,
      "Serugu": 5958,
      "àṣepọ̀": 5959,
      "àṣekára": 5960,
      "Beeri": 5961,
      "120": 5962,
      "fọnfọn": 5963,
      "Ìdílé": 5964,
      "gee": 5965,
      "Arioku": 5966,
      "Rogeli": 5967,
      "àgbáǹréré": 5968,
      "ọ̀ọ́kán": 5969,
      "Alábojútó": 5970,
      "Ẹlẹ́rìí": 5971,
      "gírígírí": 5972,
      "lẹ́sẹ̀kẹsẹ̀": 5973,
      "Ederi": 5974,
      "algumu": 5975,
      "àìmọ̀kan": 5976,
      "àtàrí": 5977,
      "ìdákẹ́rọ́rọ́": 5978,
      "Ṣammai": 5979,
      "àjẹkù": 5980,
      "Lọ́jọ́": 5981,
      "Ààmì": 5982,
      "àpèjẹ": 5983,
      "Ammieli": 5984,
      "ẹgbàafà": 5985,
      "Imina": 5986,
      "Kéde": 5987,
      "Kérúbù": 5988,
      "Makpela": 5989,
      "Oholiabu": 5990,
      "Eṣkolu": 5991,
      "Iṣiah": 5992,
      "Onítẹ̀bọmi": 5993,
      "kantíkantí": 5994,
      "kẹ́lẹ́kẹ́lẹ́": 5995,
      "Joktani": 5996,
      "Gbígbé": 5997,
      "àyídáyidà": 5998,
      "ìrẹ̀dànù": 5999,
      "Lẹ́sẹ̀kẹsẹ̀": 6000,
      "Aláìgbọ́n": 6001,
      "fẹnukò": 6002,
      "gìgísẹ̀": 6003,
      "Ebedimeleki": 6004,
      "bàìbàì": 6005,
      "igbákejì": 6006,
      "Aṣiwèrè": 6007,
      "Oniwaa": 6008,
      "ekuru": 6009,
      "yáná": 6010,
      "dágbére": 6011,
      "Talmai": 6012,
      "Àádọ́rin": 6013,
      "Jahasieli": 6014,
      "àrọ̀kúrò": 6015,
      "àtìlẹ́yìn": 6016,
      "àrọ́mọdọ́mọ": 6017,
      "Migdoli": 6018,
      "Wọlé": 6019,
      "Yàtọ̀": 6020,
      "ìbùwọ́n": 6021,
      "Ọmọdékùnrin": 6022,
      "Eṣitemo": 6023,
      "Àkọ́bí": 6024,
      "Ìṣúra": 6025,
      "àmọ̀tẹ́kùn": 6026,
      "ìdàrọ́": 6027,
      "Eliasafu": 6028,
      "Pileseri": 6029,
      "Nikodemu": 6030,
      "ìfẹnukonu": 6031,
      "Hodiah": 6032,
      "àparò": 6033,
      "ọjọọjọ́": 6034,
      "oníròbìnújẹ́": 6035,
      "Tiṣibi": 6036,
      "Bigfai": 6037,
      "Akuila": 6038,
      "Bahurimu": 6039,
      "Lysra": 6040,
      "Súnmọ́": 6041,
      "Troasi": 6042,
      "Wúńdíá": 6043,
      "ekìrí": 6044,
      "àsọyé": 6045,
      "ìmẹ́lẹ́": 6046,
      "mándrákì": 6047,
      "Jediaeli": 6048,
      "magaji": 6049,
      "Baalahi": 6050,
      "oníbàárà": 6051,
      "Ṣebaniah": 6052,
      "Pekahiah": 6053,
      "Natanaeli": 6054,
      "Tiglat": 6055,
      "Betisaida": 6056,
      "Aramaiki": 6057,
      "Oniwaasu": 6058,
      "!“": 6059,
      "16": 6060,
      "150": 6061,
      "27": 6062,
      ";‘": 6063,
      "Ateri": 6064,
      "Akori": 6065,
      "Bú": 6066,
      "Du": 6067,
      "Em": 6068,
      "Eni": 6069,
      "Epa": 6070,
      "Ese": 6071,
      "Efani": 6072,
      "Foni": 6073,
      "Guni": 6074,
      "Heli": 6075,
      "Haṣ": 6076,
      "Ipa": 6077,
      "Iri": 6078,
      "Ibẹ̀": 6079,
      "Ibo": 6080,
      "Itali": 6081,
      "Jaṣ": 6082,
      "Jari": 6083,
      "Kibi": 6084,
      "Mẹ́": 6085,
      "Okan": 6086,
      "Owó": 6087,
      "Ono": 6088,
      "Ofeli": 6089,
      "Pè": 6090,
      "Rà": 6091,
      "Ràn": 6092,
      "Sanoa": 6093,
      "Tọ": 6094,
      "Tọ́": 6095,
      "WÉ": 6096,
      "Wó": 6097,
      "Yé": 6098,
      "Yára": 6099,
      "Yàrá": 6100,
      "aá": 6101,
      "agb": 6102,
      "arò": 6103,
      "apó": 6104,
      "aiah": 6105,
      "abọ́": 6106,
      "ajagun": 6107,
      "aji": 6108,
      "amún": 6109,
      "aloti": 6110,
      "afini": 6111,
      "atẹ́gùn": 6112,
      "aloe": 6113,
      "bìtì": 6114,
      "dorí": 6115,
      "dọmọ": 6116,
      "egi": 6117,
      "eme": 6118,
      "ehoro": 6119,
      "fẹ": 6120,
      "fẹsẹ̀": 6121,
      "himu": 6122,
      "iw": 6123,
      "imí": 6124,
      "iru": 6125,
      "ife": 6126,
      "jèlé": 6127,
      "kbu": 6128,
      "kọ̀rọ̀": 6129,
      "kẹ̀yìn": 6130,
      "ksan": 6131,
      "lahi": 6132,
      "manu": 6133,
      "nti": 6134,
      "oò": 6135,
      "orun": 6136,
      "omí": 6137,
      "ofiri": 6138,
      "odin": 6139,
      "rla": 6140,
      "rku": 6141,
      "ràádọ́ta": 6142,
      "yimu": 6143,
      "Àjà": 6144,
      "Àṣá": 6145,
      "Àkàrà": 6146,
      "Àsìkò": 6147,
      "Àánú": 6148,
      "Àjèjì": 6149,
      "Èkejì": 6150,
      "Ìp": 6151,
      "Ìfi": 6152,
      "Ìyà": 6153,
      "Ìtàn": 6154,
      "Ìrìn": 6155,
      "Ìbò": 6156,
      "Ìrẹ́": 6157,
      "Ìkòkò": 6158,
      "Ìhà": 6159,
      "Ìtùnú": 6160,
      "Ìkíni": 6161,
      "ÌWÉ": 6162,
      "àbà": 6163,
      "àdú": 6164,
      "àbojútó": 6165,
      "àjùmọ̀": 6166,
      "àdánù": 6167,
      "àìṣè": 6168,
      "àràádọ́ta": 6169,
      "árín": 6170,
      "éraga": 6171,
      "ìpẹ̀": 6172,
      "ìtà": 6173,
      "ìru": 6174,
      "ìsin": 6175,
      "ìgbó": 6176,
      "ìdó": 6177,
      "ìkọlù": 6178,
      "ìfojú": 6179,
      "ìkíni": 6180,
      "ìsínwín": 6181,
      "ìrọ́kẹ̀kẹ̀": 6182,
      "ìbejì": 6183,
      "òrí": 6184,
      "òji": 6185,
      "ǹtí": 6186,
      "ǹgà": 6187,
      "Ṣọ́": 6188,
      "Ṣáájú": 6189,
      "ṣẹ̀y": 6190,
      "ṣamu": 6191,
      "Ẹgbàá": 6192,
      "Ọ́": 6193,
      "Ọgbà": 6194,
      "Ọgbẹ́": 6195,
      "Ọpẹ́": 6196,
      "ọwọ́n": 6197,
      "’.": 6198,
      "ẹ̀kẹfà": 6199,
      "gbóò": 6200,
      "wọnyóò": 6201,
      "wọnláti": 6202,
      "wọnṣùgbọ́n": 6203,
      "níṣà": 6204,
      "nímọ̀ràn": 6205,
      "níbìkan": 6206,
      "nínípọn": 6207,
      "títanná": 6208,
      "ọ̀jẹun": 6209,
      "sìfi": 6210,
      "nimu": 6211,
      "rírán": 6212,
      "rírẹ́": 6213,
      "rídìí": 6214,
      "láìy": 6215,
      "lálẹ́": 6216,
      "láìjẹ̀bi": 6217,
      "radi": 6218,
      "ramo": 6219,
      "ratoni": 6220,
      "misi": 6221,
      "sílí": 6222,
      "rẹ̀kò": 6223,
      "rẹ̀gẹ́gẹ́": 6224,
      "óòro": 6225,
      "ṣeré": 6226,
      "pépé": 6227,
      "yídà": 6228,
      "kíye": 6229,
      "kíṣí": 6230,
      "baálé": 6231,
      "pami": 6232,
      "pamfi": 6233,
      "Níhìn": 6234,
      "Níkẹyìn": 6235,
      "liki": 6236,
      "kanrí": 6237,
      "rẹni": 6238,
      "rẹàwọn": 6239,
      "rẹlẹ̀": 6240,
      "rẹláti": 6241,
      "rẹìwọ": 6242,
      "bálẹ̀": 6243,
      "bámọ̀": 6244,
      "rinà": 6245,
      "lókun": 6246,
      "rábàbà": 6247,
      "dádúró": 6248,
      "didi": 6249,
      "mọ́tàbí": 6250,
      "walẹ̀": 6251,
      "yínàti": 6252,
      "májèlé": 6253,
      "bimu": 6254,
      "ohi": 6255,
      "mua": 6256,
      "ọbabìnrin": 6257,
      "mona": 6258,
      "deba": 6259,
      "deuri": 6260,
      "ṣẹ́jú": 6261,
      "tají": 6262,
      "rọ̀gbà": 6263,
      "bubu": 6264,
      "bueli": 6265,
      "lùtu": 6266,
      "kúsọ": 6267,
      "ahari": 6268,
      "ahunṣọ": 6269,
      "dídi": 6270,
      "díbọ́n": 6271,
      "dali": 6272,
      "dasuri": 6273,
      "kólò": 6274,
      "kójọpọ̀": 6275,
      "lẹ́gàn": 6276,
      "lelu": 6277,
      "letu": 6278,
      "bojo": 6279,
      "dorla": 6280,
      "rudi": 6281,
      "aláwọ": 6282,
      "aláre": 6283,
      "alásọtẹ́lẹ̀": 6284,
      "aláriwo": 6285,
      "alátakò": 6286,
      "aláìjẹ̀bi": 6287,
      "alárinà": 6288,
      "samu": 6289,
      "tótò": 6290,
      "ayùn": 6291,
      "kọ́gbọ́n": 6292,
      "kiku": 6293,
      "tọ́ka": 6294,
      "kẹ́ta": 6295,
      "kẹ́kọ̀ọ́": 6296,
      "gieli": 6297,
      "kùkọ": 6298,
      "sílẹ̀àti": 6299,
      "mate": 6300,
      "wòkè": 6301,
      "wòran": 6302,
      "wòdù": 6303,
      "ṣẹ̀ṣẹ̀y": 6304,
      "iṣẹ́kíṣẹ́": 6305,
      "habiah": 6306,
      "koli": 6307,
      "kodò": 6308,
      "Kígbe": 6309,
      "ludi": 6310,
      "lumieli": 6311,
      "Sattu": 6312,
      "aṣòdì": 6313,
      "fidimu": 6314,
      "sósì": 6315,
      "ìṣọ̀rọ̀": 6316,
      "ẹnusọ": 6317,
      "Baa": 6318,
      "Bakbu": 6319,
      "rònú": 6320,
      "rémù": 6321,
      "gbèéraga": 6322,
      "namu": 6323,
      "tàntàn": 6324,
      "dárayá": 6325,
      "èdètí": 6326,
      "ìdáwọ́lé": 6327,
      "Ẹ̀bùn": 6328,
      "aláìlè": 6329,
      "sápá": 6330,
      "sálúbàtà": 6331,
      "àìkú": 6332,
      "àìbalẹ̀": 6333,
      "àìlábùkù": 6334,
      "àìlópin": 6335,
      "àìròtẹ́lẹ̀": 6336,
      "àìlábàwọ́n": 6337,
      "àìmoye": 6338,
      "Bera": 6339,
      "Beseri": 6340,
      "Berea": 6341,
      "Besai": 6342,
      "ìhù": 6343,
      "yinrin": 6344,
      "gobu": 6345,
      "gogu": 6346,
      "jóni": 6347,
      "Sim": 6348,
      "olùgbọ́": 6349,
      "falẹ̀": 6350,
      "tòrò": 6351,
      "ṣíṣọ́": 6352,
      "Lehi": 6353,
      "Heloni": 6354,
      "Ọ̀wọ́": 6355,
      "telahi": 6356,
      "gbólóhùn": 6357,
      "Ṣeta": 6358,
      "Ṣedeuri": 6359,
      "Ṣelumieli": 6360,
      "kuo": 6361,
      "kuku": 6362,
      "Hati": 6363,
      "Hala": 6364,
      "Hatta": 6365,
      "Hattu": 6366,
      "Hakosi": 6367,
      "Halelu": 6368,
      "juwọ́": 6369,
      "Elisuri": 6370,
      "yadi": 6371,
      "yarọ": 6372,
      "àkójọ": 6373,
      "hori": 6374,
      "hola": 6375,
      "ṣagi": 6376,
      "ṣamọ̀nà": 6377,
      "ẹlẹ́tù": 6378,
      "ẹlẹ́dàá": 6379,
      "ẹlẹ́kẹrin": 6380,
      "ẹlẹ́kẹfà": 6381,
      "ẹlẹ́karùnún": 6382,
      "ẹlẹ́ǹgà": 6383,
      "Tatenai": 6384,
      "ibùsọ̀": 6385,
      "ṣimu": 6386,
      "ṣiyèméjì": 6387,
      "Pera": 6388,
      "Pelati": 6389,
      "Pedasuri": 6390,
      "mesesi": 6391,
      "medata": 6392,
      "ṣọ́wọ́": 6393,
      "àgbàrá": 6394,
      "àgbàdo": 6395,
      "Kedorla": 6396,
      "Malki": 6397,
      "Maliki": 6398,
      "Magogu": 6399,
      "pàǹtí": 6400,
      "tannijẹ": 6401,
      "ìpara": 6402,
      "Miṣi": 6403,
      "Millo": 6404,
      "rìkíṣí": 6405,
      "dínwọ̀n": 6406,
      "Lábẹ́": 6407,
      "Lákòókò": 6408,
      "Rekemu": 6409,
      "Rehabiah": 6410,
      "Refidimu": 6411,
      "Pagieli": 6412,
      "Medeba": 6413,
      "Mehola": 6414,
      "Gai": 6415,
      "láìrí": 6416,
      "láìka": 6417,
      "gígaàti": 6418,
      "yanturu": 6419,
      "nesi": 6420,
      "rọra": 6421,
      "rọlẹ̀": 6422,
      "méjèèjìlá": 6423,
      "Abidani": 6424,
      "Abiṣua": 6425,
      "Abiṣagi": 6426,
      "odikea": 6427,
      "ariah": 6428,
      "Tikiku": 6429,
      "huri": 6430,
      "àjọpín": 6431,
      "ìjàǹbá": 6432,
      "ìgbésókè": 6433,
      "pípèsè": 6434,
      "àádọ́fà": 6435,
      "Jafani": 6436,
      "Jasoni": 6437,
      "Jafia": 6438,
      "Jairu": 6439,
      "Kenaana": 6440,
      "èébì": 6441,
      "èékánná": 6442,
      "gúlùtu": 6443,
      "Ramesesi": 6444,
      "Ṣihori": 6445,
      "Kittimu": 6446,
      "Ṣab": 6447,
      "tori": 6448,
      "fòófó": 6449,
      "Ahira": 6450,
      "Ahiludi": 6451,
      "farakan": 6452,
      "feu": 6453,
      "Hosa": 6454,
      "Hofini": 6455,
      "Laodikea": 6456,
      "àmúga": 6457,
      "dariki": 6458,
      "ìṣọ́ra": 6459,
      "Argobu": 6460,
      "Piratoni": 6461,
      "Aṣani": 6462,
      "Arah": 6463,
      "yómọ": 6464,
      "Jehudu": 6465,
      "Eleale": 6466,
      "mẹ́rìnléláàdọ́": 6467,
      "Gosani": 6468,
      "òǹkà": 6469,
      "Anati": 6470,
      "pirusi": 6471,
      "ìdènà": 6472,
      "ìmúni": 6473,
      "ìmúwòdù": 6474,
      "ẹlẹgẹ́": 6475,
      "díákónì": 6476,
      "Tobu": 6477,
      "ìbísí": 6478,
      "ẹ̀ẹ́dẹ́gbẹ̀jọ": 6479,
      "ẹ̀ẹ́dẹ́gbẹ̀rún": 6480,
      "ṣọdẹ": 6481,
      "Misraimu": 6482,
      "Ṣuari": 6483,
      "Ṣuhi": 6484,
      "Ṣubueli": 6485,
      "Ṣutelahi": 6486,
      "Nahati": 6487,
      "Aini": 6488,
      "Asrikamu": 6489,
      "128": 6490,
      "Deueli": 6491,
      "ẹ̀ẹ̀mẹ": 6492,
      "wàràǹkà": 6493,
      "móoru": 6494,
      "gera": 6495,
      "Kíndìnrín": 6496,
      "Arista": 6497,
      "Arimate": 6498,
      "Adoniramu": 6499,
      "Mahila": 6500,
      "ìfẹsẹ̀": 6501,
      "Diṣani": 6502,
      "dáàbòbò": 6503,
      "Tẹmpili": 6504,
      "Purimu": 6505,
      "Sáré": 6506,
      "Gbàdúrà": 6507,
      "ẹgbẹgbẹ́": 6508,
      "Èéti": 6509,
      "Ahohi": 6510,
      "férémù": 6511,
      "ìsọdọmọ": 6512,
      "Mattani": 6513,
      "Ohola": 6514,
      "Refaiah": 6515,
      "ìṣẹ̀dá": 6516,
      "Ṣammua": 6517,
      "Agara": 6518,
      "Aginjù": 6519,
      "dínlọ́gọ́rùn": 6520,
      "Amasai": 6521,
      "Lọ́gán": 6522,
      "àpèjúwe": 6523,
      "Ammiṣaddai": 6524,
      "Àyàfi": 6525,
      "àmuyó": 6526,
      "ìṣípayá": 6527,
      "Dodo": 6528,
      "Doegi": 6529,
      "abìyẹ́": 6530,
      "Ludi": 6531,
      "Aposteli": 6532,
      "múná": 6533,
      "Tumimu": 6534,
      "ìpadàsẹ́yìn": 6535,
      "Alfeu": 6536,
      "Ayaba": 6537,
      "Nimṣi": 6538,
      "Suriṣaddai": 6539,
      "Joiaribu": 6540,
      "Sibekai": 6541,
      "Haṣumu": 6542,
      "Haṣubu": 6543,
      "fìdímúlẹ̀": 6544,
      "ọ̀dàlẹ̀": 6545,
      "lélọ́gọ́ta": 6546,
      "olùbáṣiṣẹ́": 6547,
      "olùbádámọ̀ràn": 6548,
      "olójúkòkòrò": 6549,
      "Talmoni": 6550,
      "Àádọ́ta": 6551,
      "Haggiti": 6552,
      "Bukki": 6553,
      "Harari": 6554,
      "ìfarapa": 6555,
      "lọ́ọ́lọ́ọ́": 6556,
      "tìfẹ́tìfẹ́": 6557,
      "Helesi": 6558,
      "Merodaki": 6559,
      "Aleksan": 6560,
      "skilla": 6561,
      "ìsopọ̀": 6562,
      "Sohari": 6563,
      "ọ̀kànlá": 6564,
      "Haserotu": 6565,
      "Mehuni": 6566,
      "alábáṣiṣẹ́pọ̀": 6567,
      "Itri": 6568,
      "alumagaji": 6569,
      "Ìpayà": 6570,
      "ọ̀wààrà": 6571,
      "lógù": 6572,
      "Serahiah": 6573,
      "ẹnìkéjì": 6574,
      "Hammedata": 6575,
      "Jaṣubu": 6576,
      "Jahisa": 6577,
      "Priskilla": 6578,
      "afùnpè": 6579,
      "akátá": 6580,
      "sáàárín": 6581,
      "àfẹ́sọ́nà": 6582,
      "jìjàkadì": 6583,
      "Sibma": 6584,
      "Habakuku": 6585,
      "Hareseti": 6586,
      "dínlógóje": 6587,
      "Nebaioti": 6588,
      "Gemariah": 6589,
      "Raama": 6590,
      "Artemisi": 6591,
      "Huṣati": 6592,
      "geere": 6593,
      "Eṣitemoa": 6594,
      "Kibirotu": 6595,
      "Okanri": 6596,
      "agbẹnusọ": 6597,
      "ajigbèsè": 6598,
      "amúnkùn": 6599,
      "emeradi": 6600,
      "iwin": 6601,
      "oògùn": 6602,
      "odindi": 6603,
      "Àṣálẹ́": 6604,
      "àdúgbò": 6605,
      "àjùmọ̀jogún": 6606,
      "ìtàkùn": 6607,
      "níṣàlẹ̀": 6608,
      "sílífà": 6609,
      "pamfilia": 6610,
      "tótòtó": 6611,
      "ṣẹ̀ṣẹ̀yọ": 6612,
      "Hattaafa": 6613,
      "Hattusi": 6614,
      "Haleluya": 6615,
      "Pelatiah": 6616,
      "Kedorlaomeri": 6617,
      "Malikiṣua": 6618,
      "wàràǹkàṣì": 6619,
      "Aristarku": 6620,
      "Arimatea": 6621,
      "Aleksanderu": 6622,
      "29": 6623,
      "46": 6624,
      "450": 6625,
      "53": 6626,
      "550": 6627,
      "61": 6628,
      "64": 6629,
      "65": 6630,
      "Af": 6631,
      "Au": 6632,
      "Afi": 6633,
      "Ali": 6634,
      "Ata": 6635,
      "Adé": 6636,
      "Asu": 6637,
      "Afa": 6638,
      "Aleki": 6639,
      "Afẹ́fẹ́": 6640,
      "Ayọ́": 6641,
      "Attai": 6642,
      "Bẹrẹ": 6643,
      "Bọ̀wọ̀": 6644,
      "Etí": 6645,
      "Efi": 6646,
      "Fí": 6647,
      "Horo": 6648,
      "Hahi": 6649,
      "Iti": 6650,
      "Igun": 6651,
      "Igba": 6652,
      "Igbe": 6653,
      "Kúrò": 6654,
      "Lodi": 6655,
      "Laha": 6656,
      "Mọ": 6657,
      "Mọ̀nà": 6658,
      "Múra": 6659,
      "Naha": 6660,
      "Obo": 6661,
      "Onamu": 6662,
      "Tan": 6663,
      "Urieli": 6664,
      "Ulai": 6665,
      "Ulamu": 6666,
      "Wẹ̀": 6667,
      "Yìn": 6668,
      "ar": 6669,
      "aṣe": 6670,
      "abí": 6671,
      "alọ́": 6672,
      "ade": 6673,
      "asọ̀": 6674,
      "api": 6675,
      "alóre": 6676,
      "adójúti": 6677,
      "amúni": 6678,
      "brieli": 6679,
      "dìgbà": 6680,
      "ddimu": 6681,
      "epu": 6682,
      "fèé": 6683,
      "gẹ": 6684,
      "gín": 6685,
      "gèdè": 6686,
      "hanani": 6687,
      "ire": 6688,
      "iyàn": 6689,
      "idán": 6690,
      "kin": 6691,
      "lẹn": 6692,
      "mhamu": 6693,
      "mère": 6694,
      "mina": 6695,
      "mbori": 6696,
      "mmimu": 6697,
      "nnì": 6698,
      "opa": 6699,
      "odó": 6700,
      "ojo": 6701,
      "pla": 6702,
      "rgali": 6703,
      "spa": 6704,
      "slu": 6705,
      "snai": 6706,
      "ssiti": 6707,
      "tba": 6708,
      "tọkùnrin": 6709,
      "tobìnrin": 6710,
      "tìyanu": 6711,
      "tọ́nà": 6712,
      "urù": 6713,
      "Àlá": 6714,
      "Àfi": 6715,
      "Àgbà": 6716,
      "Àtúnṣe": 6717,
      "Àṣọ": 6718,
      "Àjíǹde": 6719,
      "Àtẹ̀gùn": 6720,
      "Àjálù": 6721,
      "Èè": 6722,
      "Ète": 6723,
      "Ìta": 6724,
      "Ìbẹ̀rẹ̀": 6725,
      "Ìjò": 6726,
      "Ìjìyà": 6727,
      "Ìpohùnréré": 6728,
      "Ìloro": 6729,
      "Ìdánwò": 6730,
      "Ìlànà": 6731,
      "Ìwòsàn": 6732,
      "Òru": 6733,
      "Òjò": 6734,
      "Ògiri": 6735,
      "Òórùn": 6736,
      "Òbúkọ": 6737,
      "àwá": 6738,
      "àlé": 6739,
      "àwí": 6740,
      "àpọ́n": 6741,
      "àṣẹ́kù": 6742,
      "àpéjọpọ̀": 6743,
      "àìpò": 6744,
      "àkùkọ": 6745,
      "ápù": 6746,
      "èrú": 6747,
      "èrì": 6748,
      "ìsọ̀": 6749,
      "ìyípadà": 6750,
      "ìmù": 6751,
      "ìgá": 6752,
      "ìbojútó": 6753,
      "ìgbógun": 6754,
      "ìfọ́jú": 6755,
      "ìdójútì": 6756,
      "ìdìtẹ̀": 6757,
      "ìfòyà": 6758,
      "ìkánjú": 6759,
      "ìdàgbàsókè": 6760,
      "ìmutí": 6761,
      "ìdáàbòbò": 6762,
      "òku": 6763,
      "òòrùn": 6764,
      "òùngbẹ": 6765,
      "òdínwọ̀n": 6766,
      "ògúlùtu": 6767,
      "ńbú": 6768,
      "ńté": 6769,
      "ǹgbé": 6770,
      "ǹdẹ̀dẹ̀": 6771,
      "Ṣin": 6772,
      "ṣba": 6773,
      "ṣọgbà": 6774,
      "Ẹrú": 6775,
      "Ẹkún": 6776,
      "Ẹja": 6777,
      "Ẹyẹ": 6778,
      "Ọrùn": 6779,
      "Ọlọ́rọ̀": 6780,
      "ọlẹ̀": 6781,
      "ọgba": 6782,
      "‘,": 6783,
      "ẹ̀mú": 6784,
      "ẹ̀lí": 6785,
      "ẹ̀kejì": 6786,
      "ẹ̀rọ": 6787,
      "gbu": 6788,
      "tiṣe": 6789,
      "tiri": 6790,
      "tigbòǹgbò": 6791,
      "ọ́láti": 6792,
      "wọnó": 6793,
      "wọnní": 6794,
      "wọnkò": 6795,
      "nírin": 6796,
      "nídè": 6797,
      "nífẹ̀ẹ́": 6798,
      "títẹ̀": 6799,
      "títì": 6800,
      "ọ̀wọn": 6801,
      "ọ̀hún": 6802,
      "niti": 6803,
      "nini": 6804,
      "niri": 6805,
      "nike": 6806,
      "nina": 6807,
      "ninilára": 6808,
      "nigín": 6809,
      "rírìn": 6810,
      "lámù": 6811,
      "lálejò": 6812,
      "láṣọ": 6813,
      "lákòókò": 6814,
      "miàwọn": 6815,
      "miri": 6816,
      "mimo": 6817,
      "minígbà": 6818,
      "mitàbí": 6819,
      "síso": 6820,
      "sísan": 6821,
      "sísùn": 6822,
      "rẹ̀bí": 6823,
      "rẹ̀ìwọ": 6824,
      "fúnàwọn": 6825,
      "yóòsì": 6826,
      "ṣepọ̀": 6827,
      "yíyà": 6828,
      "yídáyidà": 6829,
      "bíba": 6830,
      "bíbéèrè": 6831,
      "fita": 6832,
      "fileti": 6833,
      "aneli": 6834,
      "kíkí": 6835,
      "kígi": 6836,
      "kíké": 6837,
      "kíkọ̀": 6838,
      "kíkẹ̀": 6839,
      "lẹ̀kùn": 6840,
      "baki": 6841,
      "oríkèé": 6842,
      "lọ́kùnrin": 6843,
      "lọ́pọ̀": 6844,
      "lọ́gbọ": 6845,
      "lọ́fín": 6846,
      "papirusi": 6847,
      "Níwọ̀n": 6848,
      "lúpà": 6849,
      "wápẹ̀lú": 6850,
      "wátàbí": 6851,
      "runàti": 6852,
      "rẹwọn": 6853,
      "rẹní": 6854,
      "rẹrẹ": 6855,
      "júù": 6856,
      "léṣe": 6857,
      "jẹ́jẹ́": 6858,
      "jẹ́jọ́": 6859,
      "gbogboàwọn": 6860,
      "lódodo": 6861,
      "lóúnjẹ": 6862,
      "lófo": 6863,
      "ráhùn": 6864,
      "dáyà": 6865,
      "dárò": 6866,
      "diu": 6867,
      "dieli": 6868,
      "dimímọ́": 6869,
      "diria": 6870,
      "ènìyànàti": 6871,
      "kọnà": 6872,
      "yínÈmi": 6873,
      "rioti": 6874,
      "risimu": 6875,
      "kùnrùn": 6876,
      "bili": 6877,
      "ìwọdò": 6878,
      "Jeṣu": 6879,
      "Jeriah": 6880,
      "ẹnití": 6881,
      "tami": 6882,
      "takọ": 6883,
      "tabo": 6884,
      "takun": 6885,
      "tahiah": 6886,
      "tambori": 6887,
      "jámọ́": 6888,
      "jáyà": 6889,
      "jáfá": 6890,
      "reda": 6891,
      "reki": 6892,
      "reepu": 6893,
      "gunjalè": 6894,
      "ahamu": 6895,
      "dọ̀bálẹ̀": 6896,
      "làsàn": 6897,
      "sieli": 6898,
      "kókìkí": 6899,
      "lẹ́bú": 6900,
      "lẹ́hìn": 6901,
      "leka": 6902,
      "leeli": 6903,
      "leamu": 6904,
      "lemiah": 6905,
      "bosnai": 6906,
      "doramu": 6907,
      "ẹ́ẹ̀rẹ̀": 6908,
      "runi": 6909,
      "ruurù": 6910,
      "aláǹ": 6911,
      "alára": 6912,
      "alápá": 6913,
      "alájọ": 6914,
      "alámì": 6915,
      "rèé": 6916,
      "Mola": 6917,
      "kali": 6918,
      "kasi": 6919,
      "mọ̀mí": 6920,
      "kọ́kàn": 6921,
      "kọ́lọ́fín": 6922,
      "kànìyàn": 6923,
      "ojúkojú": 6924,
      "seali": 6925,
      "kimu": 6926,
      "wọ̀nsì": 6927,
      "tọ́jọ́": 6928,
      "ìlútí": 6929,
      "gireepu": 6930,
      "rosi": 6931,
      "roko": 6932,
      "rodu": 6933,
      "ìgbàkúgbà": 6934,
      "ọ̀nààti": 6935,
      "sílẹ̀kí": 6936,
      "Joahasi": 6937,
      "Jotba": 6938,
      "kénìyàn": 6939,
      "kọ̀ró": 6940,
      "gbaga": 6941,
      "ṣẹ̀dá": 6942,
      "túnwọ̀nsì": 6943,
      "dìpọ̀": 6944,
      "hani": 6945,
      "kosti": 6946,
      "àgò": 6947,
      "ogunàti": 6948,
      "Salẹmu": 6949,
      "Sabe": 6950,
      "Sallu": 6951,
      "Saleka": 6952,
      "gbáradì": 6953,
      "ayéó": 6954,
      "ayétí": 6955,
      "pẹja": 6956,
      "pẹyẹ": 6957,
      "ìṣọ̀fọ̀": 6958,
      "ìjowú": 6959,
      "ìpẹ́ẹ̀rẹ̀": 6960,
      "kábámọ̀": 6961,
      "kálámù": 6962,
      "tẹ̀wọ": 6963,
      "tẹ̀rù": 6964,
      "Bamoti": 6965,
      "gari": 6966,
      "garma": 6967,
      "fàyọ": 6968,
      "róbó": 6969,
      "lau": 6970,
      "lani": 6971,
      "nati": 6972,
      "yelé": 6973,
      "èdèàti": 6974,
      "èdèǹgbé": 6975,
      "búburútí": 6976,
      "gbẹ́yín": 6977,
      "ìdáwó": 6978,
      "ìdákọ̀ró": 6979,
      "láradà": 6980,
      "Ẹ̀gún": 6981,
      "Ẹ̀fúùfù": 6982,
      "Ẹ̀rẹ̀kẹ́": 6983,
      "Ẹ̀karùnún": 6984,
      "ìdíyelé": 6985,
      "onísùúrù": 6986,
      "onígbèéraga": 6987,
      "onítótòtó": 6988,
      "sáyé": 6989,
      "Ejò": 6990,
      "àìrí": 6991,
      "àìgbọ́n": 6992,
      "àìlẹ́gàn": 6993,
      "Beari": 6994,
      "lomeu": 6995,
      "dọ́ta": 6996,
      "lílo": 6997,
      "lílépa": 6998,
      "igikígi": 6999,
      "Silla": 7000,
      "Siddimu": 7001,
      "olùbùkún": 7002,
      "olùdáǹdè": 7003,
      "faati": 7004,
      "Kristiani": 7005,
      "pòpọ̀": 7006,
      "pòruurù": 7007,
      "tumọ̀": 7008,
      "tutọ́": 7009,
      "sókèláti": 7010,
      "fífọ": 7011,
      "Abinoamu": 7012,
      "sìnrú": 7013,
      "ṣíṣú": 7014,
      "Hel": 7015,
      "Heti": 7016,
      "Heleki": 7017,
      "Hegai": 7018,
      "Ọ̀dọ̀": 7019,
      "Ọ̀tá": 7020,
      "kẹẹdọ́gbọ̀n": 7021,
      "Ṣeṣani": 7022,
      "Ṣeṣba": 7023,
      "jíròrò": 7024,
      "Sela": 7025,
      "Seferi": 7026,
      "Sealoti": 7027,
      "Sebubu": 7028,
      "Seniri": 7029,
      "kẹ̀lé": 7030,
      "ẹnìkínní": 7031,
      "kulẹ̀": 7032,
      "kulò": 7033,
      "Hataki": 7034,
      "Hadoramu": 7035,
      "Eliada": 7036,
      "gbòlù": 7037,
      "Jakọbuàti": 7038,
      "ìbálé": 7039,
      "Giloni": 7040,
      "Gidde": 7041,
      "irúdì": 7042,
      "ẹlẹ́ran": 7043,
      "ẹlẹ́jẹ̀": 7044,
      "ẹlẹ́ẹ̀kejì": 7045,
      "sànju": 7046,
      "yọjú": 7047,
      "sandiria": 7048,
      "pẹ́kí": 7049,
      "Perati": 7050,
      "Pelaiah": 7051,
      "Penti": 7052,
      "Petahiah": 7053,
      "meamu": 7054,
      "mene": 7055,
      "Kefira": 7056,
      "Ketura": 7057,
      "Kerioti": 7058,
      "Maloni": 7059,
      "ogúnjọ́": 7060,
      "Mit": 7061,
      "Miki": 7062,
      "Milo": 7063,
      "Mijamini": 7064,
      "Miletu": 7065,
      "iyekíye": 7066,
      "díndín": 7067,
      "dínmárùn": 7068,
      "dínàádọ́ta": 7069,
      ":“,": 7070,
      "Naara": 7071,
      "Rere": 7072,
      "Reaiah": 7073,
      "fowó": 7074,
      "Jehosabadi": 7075,
      "Pasea": 7076,
      "ẹgbẹ̀sán": 7077,
      "Mes": 7078,
      "Meoni": 7079,
      "Meṣa": 7080,
      "Mefaati": 7081,
      "Gaaṣi": 7082,
      "Gadara": 7083,
      "díẹ̀díẹ̀": 7084,
      "láìgba": 7085,
      "láìsan": 7086,
      "láìlọ́mọ": 7087,
      "Nefi": 7088,
      "Nefe": 7089,
      "Nemueli": 7090,
      "Nergali": 7091,
      "ṣooṣù": 7092,
      "gbárí": 7093,
      "neamu": 7094,
      "Abida": 7095,
      "Kab": 7096,
      "ìwọ̀ntúnwọ̀nsì": 7097,
      "gégi": 7098,
      "Tib": 7099,
      "Tira": 7100,
      "Gebali": 7101,
      "Geṣemu": 7102,
      "Gerisimu": 7103,
      "gbígbòòrò": 7104,
      "ìgbésí": 7105,
      "ìgbékalẹ̀": 7106,
      "Jaa": 7107,
      "Jada": 7108,
      "Jaaṣani": 7109,
      "Jatti": 7110,
      "Jalamu": 7111,
      "èélá": 7112,
      "Asiri": 7113,
      "ṣàǹfààní": 7114,
      "ṣàròyé": 7115,
      "Ṣimri": 7116,
      "Sioniàti": 7117,
      "Kimhamu": 7118,
      "òkùnkùntí": 7119,
      "Ṣala": 7120,
      "Ṣaal": 7121,
      "Ṣamiri": 7122,
      "tolomeu": 7123,
      "Sọtẹ́lẹ̀": 7124,
      "Ahimani": 7125,
      "nùmọ́": 7126,
      "ìtìlẹ̀": 7127,
      "dúńbú": 7128,
      "bìrì": 7129,
      "inamoni": 7130,
      "gustu": 7131,
      "háwọ́": 7132,
      "Baladani": 7133,
      "Ardi": 7134,
      "Annasi": 7135,
      "àìnírètí": 7136,
      "àìnídìí": 7137,
      "Lókè": 7138,
      "Aṣbeli": 7139,
      "Ararati": 7140,
      "àtọwọ́": 7141,
      "paná": 7142,
      "ìdarí": 7143,
      "Golani": 7144,
      "Iṣfi": 7145,
      "yọ́nú": 7146,
      "láìníye": 7147,
      "ṣìíríṣìí": 7148,
      "Rehoboti": 7149,
      "Huṣamu": 7150,
      "Huṣimu": 7151,
      "Bartolomeu": 7152,
      "ìmúkúrò": 7153,
      "téńté": 7154,
      "Togarma": 7155,
      "Merabu": 7156,
      "agogo": 7157,
      "Naharaimu": 7158,
      "Asgadi": 7159,
      "Samla": 7160,
      "paradà": 7161,
      "ìpẹ́pẹ́": 7162,
      "Debari": 7163,
      "Elhanani": 7164,
      "sínsin": 7165,
      "Ṣemariah": 7166,
      "ajáko": 7167,
      "Rispa": 7168,
      "àdàlú": 7169,
      "ìfiré": 7170,
      "ìfiṣẹ̀sín": 7171,
      "ẹ̀ẹ̀kẹ́ta": 7172,
      "apani": 7173,
      "Ṣobabu": 7174,
      "mókun": 7175,
      "ìròbìnújẹ́": 7176,
      "dẹ́rùba": 7177,
      "Adra": 7178,
      "Irúdì": 7179,
      "sẹ́hìn": 7180,
      "híhu": 7181,
      "híhù": 7182,
      "Kọlu": 7183,
      "ìfọkànsìn": 7184,
      "ìfófó": 7185,
      "Dibla": 7186,
      "Aksibu": 7187,
      "hesọ": 7188,
      "àgbájọpọ̀": 7189,
      "Dáríjì": 7190,
      "òòjọ́": 7191,
      "Ìyẹ́": 7192,
      "Ìyọnu": 7193,
      "ìkápá": 7194,
      "Pua": 7195,
      "èèpo": 7196,
      "ẹgbẹgbàa": 7197,
      "alágbàwí": 7198,
      "alágbàtọ́jú": 7199,
      "Tarsu": 7200,
      "ẹsẹẹsẹ": 7201,
      "Hamulu": 7202,
      "ìsọkúsọ": 7203,
      "ìsọdimímọ́": 7204,
      "Eferi": 7205,
      "Horeṣi": 7206,
      "ìgbọ́wọ́": 7207,
      "ìdìgbòlù": 7208,
      "Lọ́dọ̀": 7209,
      "Egla": 7210,
      "Imla": 7211,
      "Hanameli": 7212,
      "gọta": 7213,
      "137": 7214,
      "144": 7215,
      "254": 7216,
      "Onírúurú": 7217,
      "Jokṣani": 7218,
      "Jokneamu": 7219,
      "Kenissiti": 7220,
      "Meṣelemiah": 7221,
      "Elisafani": 7222,
      "kánjúwà": 7223,
      "Alfa": 7224,
      "adigunjalè": 7225,
      "lápákan": 7226,
      "Nimrodu": 7227,
      "Ibùsùn": 7228,
      "Nekoda": 7229,
      "Arfadi": 7230,
      "Hananeli": 7231,
      "tayọ̀tayọ̀": 7232,
      "Joiada": 7233,
      "Joiakimu": 7234,
      "Harṣa": 7235,
      "Kuṣani": 7236,
      "dunnú": 7237,
      "gègé": 7238,
      "ọ̀tàlélẹ́gbẹ̀ta": 7239,
      "dínláàdọ́ta": 7240,
      "Ṣimṣai": 7241,
      "mẹẹdọ́gbọ̀n": 7242,
      "àkàlà": 7243,
      "Sippora": 7244,
      "Popla": 7245,
      "ìlòkulò": 7246,
      "ìmúrasílẹ̀": 7247,
      "Jeṣimoni": 7248,
      "Jeṣimoti": 7249,
      "ìṣèjọba": 7250,
      "Bilhani": 7251,
      "337": 7252,
      "Adini": 7253,
      "Alemeti": 7254,
      "Fẹ́ràn": 7255,
      "Tálákà": 7256,
      "àtúnkọ́": 7257,
      "gbọingbọin": 7258,
      "Ìrísí": 7259,
      "Ìwẹ̀fà": 7260,
      "Ìwẹ̀nùmọ́": 7261,
      "Òṣùpá": 7262,
      "lúúlúú": 7263,
      "léraléra": 7264,
      "tìmùtìmù": 7265,
      "aláìléso": 7266,
      "fíofío": 7267,
      "Ṣemida": 7268,
      "Ṣemiramo": 7269,
      "ẹgbẹ̀tàlá": 7270,
      "méjìléláàdọ́ta": 7271,
      "Gígùn": 7272,
      "Tẹ̀síwájú": 7273,
      "abirùn": 7274,
      "Ìdámẹ́ta": 7275,
      "Ọgọ́rùn": 7276,
      "turikuo": 7277,
      "Henadadi": 7278,
      "méjìlélọ́gọ́ta": 7279,
      "Dẹtí": 7280,
      "Esekiẹli": 7281,
      "Gbẹ́kẹ̀lé": 7282,
      "Manahati": 7283,
      "Pínpín": 7284,
      "Wàhálà": 7285,
      "gààrù": 7286,
      "llioni": 7287,
      "gbàngàn": 7288,
      "Kedemoti": 7289,
      "bójúmu": 7290,
      "Emmanu": 7291,
      "Fonisia": 7292,
      "Ibojì": 7293,
      "Ìpìlẹ̀": 7294,
      "Ìfibú": 7295,
      "Ìrẹ́pọ̀": 7296,
      "àìṣègbè": 7297,
      "ìrudí": 7298,
      "ìdótì": 7299,
      "Ṣọ́ra": 7300,
      "láìyẹsẹ̀": 7301,
      "kólòbó": 7302,
      "Baalati": 7303,
      "ìhùwà": 7304,
      "Ṣetar": 7305,
      "Perasimu": 7306,
      "Malkieli": 7307,
      "Miṣima": 7308,
      "Gaiu": 7309,
      "ẹ̀ẹ̀mẹta": 7310,
      "Augustu": 7311,
      "Asuba": 7312,
      "Alekisandiria": 7313,
      "Ayọ́lẹ̀wò": 7314,
      "Bẹrẹkiah": 7315,
      "Horonaimu": 7316,
      "Hahirotu": 7317,
      "Mọ̀nàmọ́ná": 7318,
      "Obotu": 7319,
      "aṣebi": 7320,
      "alọ́nilọ́wọ́gbà": 7321,
      "adójútini": 7322,
      "amúnisìn": 7323,
      "lẹntili": 7324,
      "Àgbàlá": 7325,
      "Àṣọtẹ́lẹ̀": 7326,
      "Ìjòyè": 7327,
      "àlébù": 7328,
      "èrìgì": 7329,
      "ìsọ̀rí": 7330,
      "ìgárá": 7331,
      "ìmutípara": 7332,
      "Ṣinari": 7333,
      "ẹ̀lírí": 7334,
      "nírinwó": 7335,
      "lọ́gbọọgba": 7336,
      "lúpàyídà": 7337,
      "Jeṣuruni": 7338,
      "jáfáfá": 7339,
      "alápáǹdẹ̀dẹ̀": 7340,
      "Molada": 7341,
      "gbagada": 7342,
      "Sabeani": 7343,
      "róbótó": 7344,
      "Ṣeṣbassari": 7345,
      "Giddeli": 7346,
      "Pentikosti": 7347,
      "Nefegi": 7348,
      "Jaaṣaniah": 7349,
      "Jattiri": 7350,
      "ẹgbẹgbàarùn": 7351,
      "Poplari": 7352,
      "Ṣemiramotu": 7353,
      "turikuoṣe": 7354,
      "Emmanueli": 7355,
      ".(": 7356,
      "112": 7357,
      "23": 7358,
      "26": 7359,
      "34": 7360,
      "38": 7361,
      "39": 7362,
      "41": 7363,
      "430": 7364,
      "54": 7365,
      "56": 7366,
      "57": 7367,
      "59": 7368,
      "650": 7369,
      "77": 7370,
      "78": 7371,
      "760": 7372,
      "800": 7373,
      "97": 7374,
      "99": 7375,
      ":”": 7376,
      "Ae": 7377,
      "At": 7378,
      "Awọ": 7379,
      "Apá": 7380,
      "Agba": 7381,
      "Aso": 7382,
      "Ahu": 7383,
      "Ajẹ́rìí": 7384,
      "Aneri": 7385,
      "Adágún": 7386,
      "Aṣuri": 7387,
      "Agbárí": 7388,
      "Bun": 7389,
      "Bẹ̀rù": 7390,
      "Dra": 7391,
      "Dara": 7392,
      "Era": 7393,
      "Ebe": 7394,
      "Ebia": 7395,
      "Emimu": 7396,
      "Fo": 7397,
      "Fri": 7398,
      "Gb": 7399,
      "Gé": 7400,
      "Gọ": 7401,
      "Gan": 7402,
      "Geli": 7403,
      "Gine": 7404,
      "If": 7405,
      "Ij": 7406,
      "Ibú": 7407,
      "Ikẹ": 7408,
      "Idẹ": 7409,
      "Ife": 7410,
      "Igali": 7411,
      "Itieli": 7412,
      "Itra": 7413,
      "Jù": 7414,
      "Jọ̀": 7415,
      "Jọba": 7416,
      "Jah": 7417,
      "Janoa": 7418,
      "Kọ̀": 7419,
      "Keli": 7420,
      "Kore": 7421,
      "Lí": 7422,
      "Mọ̀": 7423,
      "Ode": 7424,
      "Oró": 7425,
      "Omari": 7426,
      "Orioni": 7427,
      "Pá": 7428,
      "Ple": 7429,
      "Rẹ": 7430,
      "Rọ": 7431,
      "Tah": 7432,
      "Un": 7433,
      "Wadi": 7434,
      "Yá": 7435,
      "Yọ": 7436,
      "adí": 7437,
      "aró": 7438,
      "agbẹ́": 7439,
      "abà": 7440,
      "apò": 7441,
      "ajẹ́rìí": 7442,
      "apọn": 7443,
      "ameti": 7444,
      "atọ́nà": 7445,
      "asìnrú": 7446,
      "bìí": 7447,
      "ddu": 7448,
      "ee": 7449,
      "ef": 7450,
      "eti": 7451,
      "edi": 7452,
      "ene": 7453,
      "fìgbà": 7454,
      "fẹ̀yìn": 7455,
      "fto": 7456,
      "fóòro": 7457,
      "gah": 7458,
      "hú": 7459,
      "ike": 7460,
      "itòsí": 7461,
      "iade": 7462,
      "jẹni": 7463,
      "kfa": 7464,
      "kinamoni": 7465,
      "ll": 7466,
      "lda": 7467,
      "lse": 7468,
      "lgọta": 7469,
      "mbá": 7470,
      "minú": 7471,
      "mana": 7472,
      "mmini": 7473,
      "mànà": 7474,
      "nára": 7475,
      "nàà": 7476,
      "nàá": 7477,
      "obe": 7478,
      "oje": 7479,
      "oṣooṣù": 7480,
      "pọ́": 7481,
      "ppu": 7482,
      "rha": 7483,
      "rúru": 7484,
      "rnike": 7485,
      "tẹni": 7486,
      "tọwọ́": 7487,
      "tfa": 7488,
      "tìpó": 7489,
      "triusi": 7490,
      "yọnu": 7491,
      "Àdà": 7492,
      "Àpá": 7493,
      "Àwò": 7494,
      "Àna": 7495,
      "Àsè": 7496,
      "Àwẹ̀": 7497,
      "Àbúrò": 7498,
      "Àyànfẹ́": 7499,
      "Èkeje": 7500,
      "Ìrú": 7501,
      "Ìlà": 7502,
      "Ìda": 7503,
      "Ìmọ̀": 7504,
      "Ìdì": 7505,
      "Ìró": 7506,
      "Ìbéèrè": 7507,
      "Ìsìn": 7508,
      "Ìkọlà": 7509,
      "Ìrànlọ́wọ́": 7510,
      "Ìbànújẹ́": 7511,
      "Ìdìtẹ̀": 7512,
      "Ìbọ̀rìṣà": 7513,
      "Ìkookò": 7514,
      "Ìhòhò": 7515,
      "Ìrònú": 7516,
      "Ìtumọ̀": 7517,
      "Òsì": 7518,
      "Òró": 7519,
      "Òpè": 7520,
      "Òrìṣà": 7521,
      "àtí": 7522,
      "àdá": 7523,
      "àta": 7524,
      "àre": 7525,
      "àrè": 7526,
      "àkàn": 7527,
      "àbù": 7528,
      "àìṣ": 7529,
      "àbò": 7530,
      "àya": 7531,
      "àyípadà": 7532,
      "àfọ̀": 7533,
      "àdán": 7534,
      "àtakò": 7535,
      "àṣẹ̀ṣẹ̀yọ": 7536,
      "àhesọ": 7537,
      "àlúpàyídà": 7538,
      "áni": 7539,
      "èpò": 7540,
      "èkeje": 7541,
      "éré": 7542,
      "ìwọ́": 7543,
      "ìrẹ": 7544,
      "ìjẹ́": 7545,
      "ìlọ": 7546,
      "ìri": 7547,
      "ìfọ̀": 7548,
      "ìtẹ̀síwájú": 7549,
      "ìjẹ́rìí": 7550,
      "ìfọn": 7551,
      "ìfá": 7552,
      "ìdẹ́rùbà": 7553,
      "ìdojúbolẹ̀": 7554,
      "ìgbóguntì": 7555,
      "ìjọ́sìn": 7556,
      "ìlawọ́": 7557,
      "ìtanù": 7558,
      "ìninilára": 7559,
      "ìfowó": 7560,
      "òrò": 7561,
      "údudu": 7562,
      "ǹgbà": 7563,
      "ǹró": 7564,
      "Ṣani": 7565,
      "Ṣibia": 7566,
      "ṣàájú": 7567,
      "Ẹwà": 7568,
      "ẹhàn": 7569,
      "Ọgbọ̀n": 7570,
      "Ọpọ́n": 7571,
      "ọni": 7572,
      "ọàti": 7573,
      "ọṣẹ": 7574,
      "ọyàn": 7575,
      "”).": 7576,
      "ẹ̀kan": 7577,
      "ẹ̀fà": 7578,
      "ẹ̀sọ̀": 7579,
      "ẹ̀mẹ́ta": 7580,
      "ẹ̀fọ́": 7581,
      "ẹ̀kẹjọ": 7582,
      "ẹ̀kẹwàá": 7583,
      "gbọ̀": 7584,
      "gbún": 7585,
      "gbọ̀wọ́": 7586,
      "gbìjà": 7587,
      "tijọ́": 7588,
      "tiyan": 7589,
      "timeu": 7590,
      "ọ́dọ̀": 7591,
      "wọnni": 7592,
      "wọnfún": 7593,
      "wọnìwọ": 7594,
      "níṣẹ́": 7595,
      "nídìí": 7596,
      "níyì": 7597,
      "tíàwọn": 7598,
      "títàn": 7599,
      "ẹ́yin": 7600,
      "ọ̀da": 7601,
      "ọ̀kì": 7602,
      "ọ̀wẹ̀": 7603,
      "ọ̀ǹda": 7604,
      "niwí": 7605,
      "niìwọ": 7606,
      "àwọnorílẹ̀": 7607,
      "ríkí": 7608,
      "ríkò": 7609,
      "rírun": 7610,
      "ríyìn": 7611,
      "rírù": 7612,
      "rírì": 7613,
      "ládé": 7614,
      "láàánú": 7615,
      "ládu": 7616,
      "lágbede": 7617,
      "lánàá": 7618,
      "rabbi": 7619,
      "mira": 7620,
      "misí": 7621,
      "miwọ́n": 7622,
      "mipẹ̀lú": 7623,
      "miÈmi": 7624,
      "mitítí": 7625,
      "miṣi": 7626,
      "sísá": 7627,
      "sípí": 7628,
      "símbá": 7629,
      "rẹ̀o": 7630,
      "rẹ̀Ó": 7631,
      "rẹ̀gbogbo": 7632,
      "rẹ̀jáde": 7633,
      "rẹ̀bẹ́ẹ̀": 7634,
      "àtiàwọn": 7635,
      "àtiohun": 7636,
      "yóòfi": 7637,
      "ṣepé": 7638,
      "ṣeeli": 7639,
      "yíjú": 7640,
      "yíyè": 7641,
      "yíyàn": 7642,
      "bíàti": 7643,
      "bíbá": 7644,
      "bíbọ̀": 7645,
      "bíbì": 7646,
      "bíyèsí": 7647,
      "fisa": 7648,
      "fipá": 7649,
      "fiṣi": 7650,
      "gbàfọ̀": 7651,
      "angeli": 7652,
      "kíó": 7653,
      "náàyóò": 7654,
      "basi": 7655,
      "mọndi": 7656,
      "oríta": 7657,
      "oríyìn": 7658,
      "lọ́kọ": 7659,
      "lọ́wẹ̀": 7660,
      "pali": 7661,
      "pajẹ": 7662,
      "padé": 7663,
      "pakà": 7664,
      "pawọ́pọ̀": 7665,
      "Níbí": 7666,
      "Nígbẹ̀yìn": 7667,
      "lúwẹ̀": 7668,
      "wání": 7669,
      "wátí": 7670,
      "wọ́nbẹ́ẹ̀": 7671,
      "ọmọdọ́mọ": 7672,
      "ìyọ̀ǹda": 7673,
      "kanra": 7674,
      "rẹdi": 7675,
      "rẹmo": 7676,
      "rẹtàbí": 7677,
      "rẹÌwọ": 7678,
      "rẹju": 7679,
      "júmọ̀": 7680,
      "júká": 7681,
      "lésì": 7682,
      "lénu": 7683,
      "léfò": 7684,
      "lélúgba": 7685,
      "lénírinwó": 7686,
      "ìnu": 7687,
      "ìnnà": 7688,
      "jẹ́àti": 7689,
      "wíwò": 7690,
      "wíwó": 7691,
      "lóbìnrin": 7692,
      "lókìkí": 7693,
      "lóǹkà": 7694,
      "lọó": 7695,
      "lọtí": 7696,
      "dáṣà": 7697,
      "ìyànfẹ́": 7698,
      "mọ́kí": 7699,
      "mọ́kúrò": 7700,
      "mọ́kọ̀": 7701,
      "waó": 7702,
      "watí": 7703,
      "wakọ̀": 7704,
      "wabẹ́ẹ̀": 7705,
      "wàní": 7706,
      "ènìyàntí": 7707,
      "ènìyànṣùgbọ́n": 7708,
      "ènìyànkénìyàn": 7709,
      "kọrí": 7710,
      "kọminú": 7711,
      "yínbí": 7712,
      "risi": 7713,
      "mábù": 7714,
      "pẹ̀ka": 7715,
      "biloni": 7716,
      "ohe": 7717,
      "mukani": 7718,
      "ìwọṣọ": 7719,
      "mímì": 7720,
      "rúdí": 7721,
      "rúgú": 7722,
      "rúkèrúdò": 7723,
      "gẹ́dẹ̀": 7724,
      "gbére": 7725,
      "gbéró": 7726,
      "ohuntí": 7727,
      "ohungbogbo": 7728,
      "Jeṣ": 7729,
      "Jeṣe": 7730,
      "Jeseri": 7731,
      "Jehe": 7732,
      "Jeturi": 7733,
      "deri": 7734,
      "deiah": 7735,
      "tari": 7736,
      "tajà": 7737,
      "tabeeli": 7738,
      "jìji": 7739,
      "ilẹ̀tí": 7740,
      "ilẹ̀kí": 7741,
      "jábọ́": 7742,
      "Israẹlinítorí": 7743,
      "reli": 7744,
      "lùú": 7745,
      "kúṣe": 7746,
      "dídí": 7747,
      "dídún": 7748,
      "díye": 7749,
      "díje": 7750,
      "dídákẹ́": 7751,
      "daṣọ": 7752,
      "kóró": 7753,
      "délẹ̀": 7754,
      "lẹ́gbẹ́": 7755,
      "lẹ́tọ̀": 7756,
      "lẹ́bùn": 7757,
      "leu": 7758,
      "lehu": 7759,
      "kúròní": 7760,
      "kìá": 7761,
      "alátì": 7762,
      "aláàrùn": 7763,
      "aláfojúdi": 7764,
      "aláyídáyidà": 7765,
      "aláàbò": 7766,
      "saki": 7767,
      "sama": 7768,
      "sabeli": 7769,
      "kami": 7770,
      "kapoli": 7771,
      "ayáni": 7772,
      "mọ̀pé": 7773,
      "mọ̀dì": 7774,
      "párí": 7775,
      "kànbalẹ̀": 7776,
      "gẹ́gẹ́bí": 7777,
      "padàNítorí": 7778,
      "kiwà": 7779,
      "kila": 7780,
      "jádepẹ̀lú": 7781,
      "kẹ́ran": 7782,
      "gia": 7783,
      "tẹ́rùn": 7784,
      "rojọ́": 7785,
      "rofimu": 7786,
      "ìgbàrí": 7787,
      "sílẹ̀fún": 7788,
      "Dar": 7789,
      "Joke": 7790,
      "kàsí": 7791,
      "gbajúmọ̀": 7792,
      "ṣẹ̀ẹ́": 7793,
      "mẹ́fẹ̀": 7794,
      "mẹ́dógún": 7795,
      "mẹ́dọ́gbọ̀n": 7796,
      "bọn": 7797,
      "hari": 7798,
      "halami": 7799,
      "ogunti": 7800,
      "Safi": 7801,
      "Sake": 7802,
      "kemiṣi": 7803,
      "ayéàti": 7804,
      "pẹlẹbẹ": 7805,
      "ìṣá": 7806,
      "ìṣọ": 7807,
      "ìṣoore": 7808,
      "ìṣúdudu": 7809,
      "lẹyẹ̀": 7810,
      "káwọ́": 7811,
      "kákò": 7812,
      "kárùn": 7813,
      "kámà": 7814,
      "tẹ̀jẹ̀": 7815,
      "Jutta": 7816,
      "Justu": 7817,
      "Babiloni": 7818,
      "ròpọ̀": 7819,
      "fàmọ́": 7820,
      "láàdóje": 7821,
      "omiláti": 7822,
      "naa": 7823,
      "naniah": 7824,
      "lòlò": 7825,
      "tànjẹ": 7826,
      "búburútàbí": 7827,
      "ìdámọ̀": 7828,
      "ìdádúró": 7829,
      "ìdárò": 7830,
      "ìdámẹ́fà": 7831,
      "akọlà": 7832,
      "Ẹ̀dá": 7833,
      "Ẹ̀gbọ́n": 7834,
      "Ẹ̀bi": 7835,
      "Ẹ̀bẹ̀": 7836,
      "Ẹ̀sùn": 7837,
      "Ẹ̀gàn": 7838,
      "Ẹ̀wẹ̀": 7839,
      "Ẹ̀kẹta": 7840,
      "Ẹ̀kẹfà": 7841,
      "Ẹ̀ẹ̀kan": 7842,
      "pèjúwe": 7843,
      "aláìlọ́gbọ́n": 7844,
      "aláìlọ́mọ": 7845,
      "aláìlérè": 7846,
      "jẹ̀jẹ̀": 7847,
      "onílé": 7848,
      "oníhò": 7849,
      "onígbèsè": 7850,
      "onípàṣípàrọ̀": 7851,
      "oníyọnu": 7852,
      "onígbọ̀wọ́": 7853,
      "àìsùn": 7854,
      "àìlọ́lá": 7855,
      "àjìnnà": 7856,
      "Beri": 7857,
      "Besori": 7858,
      "Beriti": 7859,
      "Bernike": 7860,
      "Betfa": 7861,
      "lotu": 7862,
      "dọ́wọ́": 7863,
      "jórun": 7864,
      "Sirioni": 7865,
      "Siene": 7866,
      "ọ̀runtí": 7867,
      "olùmọ̀": 7868,
      "olùsìn": 7869,
      "olùṣọ": 7870,
      "olùgbèjà": 7871,
      "rereṣùgbọ́n": 7872,
      "olórin": 7873,
      "olóhun": 7874,
      "olófòófó": 7875,
      "peali": 7876,
      "penesi": 7877,
      "pòwe": 7878,
      "sókèkí": 7879,
      "pósí": 7880,
      "Abdi": 7881,
      "beria": 7882,
      "betai": 7883,
      "bereli": 7884,
      "Ṣeṣai": 7885,
      "Ṣemeri": 7886,
      "Ṣefoni": 7887,
      "dórí": 7888,
      "jíyìn": 7889,
      "jíjò": 7890,
      "Sefi": 7891,
      "Segu": 7892,
      "Setamu": 7893,
      "Sereṣi": 7894,
      "Sefoni": 7895,
      "Senaa": 7896,
      "yànmọ́": 7897,
      "gígé": 7898,
      "kummini": 7899,
      "Haka": 7900,
      "Hasu": 7901,
      "Haku": 7902,
      "Habori": 7903,
      "Hafoti": 7904,
      "Hadidi": 7905,
      "Hakila": 7906,
      "Eliho": 7907,
      "Elipali": 7908,
      "yamọ": 7909,
      "nueli": 7910,
      "púpọ̀ṣùgbọ́n": 7911,
      "mìmì": 7912,
      "gbera": 7913,
      "ọlọ́mọ": 7914,
      "ṣafu": 7915,
      "ṣataimu": 7916,
      "ẹlẹ́rù": 7917,
      "ẹlẹ́kẹ": 7918,
      "ẹlẹ́keje": 7919,
      "ẹlẹ́kẹjọ": 7920,
      "Tab": 7921,
      "Tapenesi": 7922,
      "àníṣẹ́kù": 7923,
      "ṣile": 7924,
      "ṣiré": 7925,
      "Peloni": 7926,
      "Penina": 7927,
      "Penueli": 7928,
      "metriusi": 7929,
      "rẹ́ṣì": 7930,
      "ìwọ̀sí": 7931,
      "ìmọ̀ṣọ̀kan": 7932,
      "àgbàwọ̀": 7933,
      "Kelu": 7934,
      "Kefa": 7935,
      "Kemueli": 7936,
      "Mad": 7937,
      "Mal": 7938,
      "Maimu": 7939,
      "pàpà": 7940,
      "ìpayínkeke": 7941,
      "ṣákì": 7942,
      "ṣátá": 7943,
      "ṣágo": 7944,
      "ṣáṣá": 7945,
      "Minia": 7946,
      "rìbìtì": 7947,
      "dínméje": 7948,
      "dínmẹ́rin": 7949,
      "dínàádọ́rin": 7950,
      "dínmẹ́ẹ̀ẹ́dọ́gbọ̀n": 7951,
      "dínláàdóje": 7952,
      "Nafoti": 7953,
      "Nafiṣi": 7954,
      "yọ̀kí": 7955,
      "yọ̀nígbà": 7956,
      "Resoni": 7957,
      "òróǹró": 7958,
      "ọ̀dọ́kùnrin": 7959,
      "apárí": 7960,
      "òróróyàn": 7961,
      "Jehoṣeba": 7962,
      "Pat": 7963,
      "Palti": 7964,
      "pátákó": 7965,
      "ẹgbẹ̀jọ": 7966,
      "pinpin": 7967,
      "Meo": 7968,
      "Meso": 7969,
      "Mehi": 7970,
      "Meleki": 7971,
      "Mehe": 7972,
      "Meredi": 7973,
      "Memukani": 7974,
      "Meṣile": 7975,
      "Gatamu": 7976,
      "Galali": 7977,
      "Garebu": 7978,
      "Gallioni": 7979,
      "láìyí": 7980,
      "láìlẹ́bi": 7981,
      "láìfòyà": 7982,
      "láìlábàwọ́n": 7983,
      "Neariah": 7984,
      "Nehalami": 7985,
      "ṣojo": 7986,
      "neiah": 7987,
      "neseri": 7988,
      "nesareti": 7989,
      "wẹ̀nù": 7990,
      "ikúàti": 7991,
      "Abieli": 7992,
      "àkọ́pọ́n": 7993,
      "Kasi": 7994,
      "Kafto": 7995,
      "ìgbèrò": 7996,
      "ìlàjì": 7997,
      "fọ́lé": 7998,
      "fọ́ọ̀kì": 7999,
      "Tikfa": 8000,
      "Tifisa": 8001,
      "Tirofimu": 8002,
      "Tiberia": 8003,
      "Ahafa": 8004,
      "Genesareti": 8005,
      "ìgbèkùnpẹ̀lú": 8006,
      "ṣèjẹ": 8007,
      "ṣèdájọ́": 8008,
      "ṣèrànwọ́": 8009,
      "ìgbéga": 8010,
      "ọ̀túnla": 8011,
      "Jaaka": 8012,
      "Jaasi": 8013,
      "Jafileti": 8014,
      "Jasieli": 8015,
      "Jaddu": 8016,
      "Kenaniah": 8017,
      "orogún": 8018,
      "Beno": 8019,
      "èérún": 8020,
      "èéṣì": 8021,
      "èétiṣe": 8022,
      "Asieli": 8023,
      "ṣàrò": 8024,
      "ṣàtìpó": 8025,
      "ṣàṣàrò": 8026,
      "fẹ̀sùn": 8027,
      "Olùrànlọ́wọ́": 8028,
      "ààrùnkárùn": 8029,
      "Ṣiha": 8030,
      "Ṣille": 8031,
      "ahorotí": 8032,
      "Kis": 8033,
      "Kilau": 8034,
      "ẹgbàáméjì": 8035,
      "Ṣal": 8036,
      "kárakára": 8037,
      "ìyèṣùgbọ́n": 8038,
      "Hira": 8039,
      "Ahisama": 8040,
      "ìṣeré": 8041,
      "lìkámà": 8042,
      "dúkìá": 8043,
      "ìpèníjà": 8044,
      "Hoba": 8045,
      "Holoni": 8046,
      "Hoṣaiah": 8047,
      "ẹ̀karùnún": 8048,
      "okùnfà": 8049,
      "Asasiah": 8050,
      "ìtafà": 8051,
      "ìtayọ": 8052,
      "Esarha": 8053,
      "ìsìnrú": 8054,
      "ìgbìyànjú": 8055,
      "Pisi": 8056,
      "dẹ̀gẹ́dẹ̀": 8057,
      "Fikoli": 8058,
      "ìbẹ̀rùbojo": 8059,
      "ṣòkòtò": 8060,
      "ètùfù": 8061,
      "òjìlélẹ́gbẹ̀": 8062,
      "òjìlúgba": 8063,
      "òjìlélẹ́gbẹ̀ta": 8064,
      "lẹ́ẹ̀kọ̀ọ̀kan": 8065,
      "lẹ́ẹ̀méje": 8066,
      "gàba": 8067,
      "mẹ́rìndínlọ́gbọ̀n": 8068,
      "mẹ́rìnlélọ́gbọ̀n": 8069,
      "àgbékalẹ̀": 8070,
      "ìtẹ̀wọ̀n": 8071,
      "lẹ́gbẹ̀ta": 8072,
      "lẹ́gbẹ̀rún": 8073,
      "Goyimu": 8074,
      "yẹ̀rì": 8075,
      "ìrọ̀rí": 8076,
      "forítì": 8077,
      "banijẹ́": 8078,
      "mẹ́tàdínlógójì": 8079,
      "mẹ́tàlélọ́gọ́": 8080,
      "Wádìí": 8081,
      "Wárìrì": 8082,
      "Huppimu": 8083,
      "Bartimeu": 8084,
      "fanimọ́ra": 8085,
      "Sufu": 8086,
      "ìmúpadà": 8087,
      "Tou": 8088,
      "àbáyọ": 8089,
      "Ter": 8090,
      "àṣápa": 8091,
      "Ṣimeati": 8092,
      "ẹ̀ẹ́dẹ́gbẹ̀fà": 8093,
      "Konaniah": 8094,
      "Missa": 8095,
      "Ṣuni": 8096,
      "Ṣuhamu": 8097,
      "Ṣuppimu": 8098,
      "Asmoni": 8099,
      "Assuri": 8100,
      "ṣánṣán": 8101,
      "Beelse": 8102,
      "ìwúwo": 8103,
      "122": 8104,
      "123": 8105,
      "127": 8106,
      "gẹ̀dẹ̀gẹ́dẹ̀": 8107,
      "Dema": 8108,
      "Dekapoli": 8109,
      "Demetriusi": 8110,
      "Elte": 8111,
      "Karkemiṣi": 8112,
      "Riṣataimu": 8113,
      "fojúrí": 8114,
      "àdàkọ": 8115,
      "àdàmọ̀dì": 8116,
      "ìfiṣe": 8117,
      "ìfisọ̀rọ̀": 8118,
      "Orísun": 8119,
      "pohùnréréẹkún": 8120,
      "noti": 8121,
      "Ṣomeri": 8122,
      "diamọndi": 8123,
      "mófo": 8124,
      "Ìgbàkígbà": 8125,
      "Adina": 8126,
      "Adbeeli": 8127,
      "Adonikami": 8128,
      "Biti": 8129,
      "híhó": 8130,
      "Sodomuàti": 8131,
      "Dídán": 8132,
      "Mahati": 8133,
      "Maharai": 8134,
      "ìfọkàn": 8135,
      "ìfìmọ̀ṣọ̀kan": 8136,
      "ìfòróróyàn": 8137,
      "Perga": 8138,
      "Didimu": 8139,
      "Lida": 8140,
      "Lisia": 8141,
      "Lidia": 8142,
      "Roi": 8143,
      "méjìlélá": 8144,
      "Akrabbi": 8145,
      "Akṣafu": 8146,
      "ìlọ́nilọ́wọ́gbà": 8147,
      "aṣálẹ̀àti": 8148,
      "ttaimu": 8149,
      "Dákẹ́": 8150,
      "òòkùn": 8151,
      "òògbé": 8152,
      "òògùn": 8153,
      "òòyì": 8154,
      "Ibikíbi": 8155,
      "Ìyẹn": 8156,
      "berili": 8157,
      "Sálọ": 8158,
      "ewukúrò": 8159,
      "Alágbàfọ̀": 8160,
      "Èémí": 8161,
      "ìkúnwọ́": 8162,
      "Níbikíbi": 8163,
      "ìkáwọ́gbera": 8164,
      "agbami": 8165,
      "Ìfẹ́kúfẹ̀ẹ́": 8166,
      "ìgbẹ́jọ́": 8167,
      "kọkànlélógún": 8168,
      "lẹ́sẹ̀kan": 8169,
      "Hamutali": 8170,
      "Mattenai": 8171,
      "ìgbọ́wọ́lé": 8172,
      "245": 8173,
      "tamariski": 8174,
      "àjẹjù": 8175,
      "ìjáfara": 8176,
      "aláìlẹ́mìí": 8177,
      "dínlọ́gọ́ta": 8178,
      "Kọ́kọ́": 8179,
      "Lọ́wọ́": 8180,
      "Ààtàn": 8181,
      "maneseri": 8182,
      "yẹ́lẹyẹ̀": 8183,
      "Timnati": 8184,
      "603": 8185,
      "Arodi": 8186,
      "ọlọkùnrùn": 8187,
      "Dotani": 8188,
      "ìkọ́lé": 8189,
      "180": 8190,
      "Iṣifa": 8191,
      "Luku": 8192,
      "Asenati": 8193,
      "Endori": 8194,
      "Meṣesabeli": 8195,
      "aláwọ̀ṣe": 8196,
      "Abihudi": 8197,
      "Aṣkenasi": 8198,
      "egbèjì": 8199,
      "ibòòji": 8200,
      "ọ̀rìnlúgba": 8201,
      "dínláàádóje": 8202,
      "Nimra": 8203,
      "ssamu": 8204,
      "lọ́tọ̀ọ̀tọ̀": 8205,
      "ológoṣẹ́": 8206,
      "Stefana": 8207,
      "Méjì": 8208,
      "Noba": 8209,
      "akólòlò": 8210,
      "Sakkai": 8211,
      "Ibsani": 8212,
      "Ibleamu": 8213,
      "Ibhari": 8214,
      "Lépa": 8215,
      "ògèdèǹgbé": 8216,
      "dínláàdọ́rin": 8217,
      "172": 8218,
      "Kilioni": 8219,
      "àkàwé": 8220,
      "lọ́wọ̀ọ̀wọ́": 8221,
      "jìnnàjìnnà": 8222,
      "666": 8223,
      "Potifẹ": 8224,
      "garawa": 8225,
      "àkúnya": 8226,
      "ẹ̀gbẹ̀ẹ̀gbẹ́": 8227,
      "gbinájẹ": 8228,
      "Elifelehu": 8229,
      "Jabne": 8230,
      "Bilgah": 8231,
      "Adieli": 8232,
      "ìpòrúru": 8233,
      "Kábíyèsí": 8234,
      "alabasi": 8235,
      "Ìríra": 8236,
      "Òṣùwọ̀n": 8237,
      "pópónà": 8238,
      "Harodi": 8239,
      "Haroseti": 8240,
      "Gedera": 8241,
      "Areli": 8242,
      "Areopa": 8243,
      "Gíga": 8244,
      "Pọntu": 8245,
      "Pọntiu": 8246,
      "Tẹ̀lé": 8247,
      "abiyamọ": 8248,
      "ìréde": 8249,
      "tipẹ́tipẹ́": 8250,
      "wajawaja": 8251,
      "Daberati": 8252,
      "ketekete": 8253,
      "ìpọ́nni": 8254,
      "agégi": 8255,
      "agénijẹ": 8256,
      "Àbáwọlé": 8257,
      "Ọláńlá": 8258,
      "ọ̀gọ̀ọ̀rọ̀": 8259,
      "Jekamiah": 8260,
      "Moreṣeti": 8261,
      "tónítóní": 8262,
      "kànìnkànìn": 8263,
      "Saretani": 8264,
      "Sarefati": 8265,
      "kálàmù": 8266,
      "gbọningbọnin": 8267,
      "tọ̀wọ̀tọ̀wọ̀": 8268,
      "Mibsari": 8269,
      "Mibsamu": 8270,
      "Láìsí": 8271,
      "yékéyéké": 8272,
      "Duma": 8273,
      "Epafira": 8274,
      "Esemu": 8275,
      "Helikati": 8276,
      "Jaṣobe": 8277,
      "Jaribi": 8278,
      "Mẹ́fà": 8279,
      "Pèsè": 8280,
      "aáwọ̀": 8281,
      "afiniṣèjẹ": 8282,
      "fẹsẹ̀múlẹ̀": 8283,
      "Àjàkálẹ̀": 8284,
      "Ìyàsímímọ́": 8285,
      "ìpẹ̀tẹ̀": 8286,
      "ìgbónára": 8287,
      "Bakbukiah": 8288,
      "Simma": 8289,
      "Ṣabbetai": 8290,
      "mẹ́rìnléláàdọ́ta": 8291,
      "ìmúnibínú": 8292,
      "Èétirí": 8293,
      "Affimu": 8294,
      "Lahai": 8295,
      "Nahalali": 8296,
      "Yìnyín": 8297,
      "abínibí": 8298,
      "apidán": 8299,
      "minas": 8300,
      "Èèkàn": 8301,
      "àwíjàre": 8302,
      "àpọ́nlé": 8303,
      "ìgbógunti": 8304,
      "Jotbata": 8305,
      "Mikiloti": 8306,
      "Kabṣeeli": 8307,
      "Tibni": 8308,
      "Ṣalamaneseri": 8309,
      "àtọwọ́dọ́wọ́": 8310,
      "Adrameleki": 8311,
      "Diblataimu": 8312,
      "ìgbọ́wọ́sókè": 8313,
      "ìhùwàsí": 8314,
      "Agbada": 8315,
      "Bunni": 8316,
      "Dragoni": 8317,
      "Erastu": 8318,
      "Ebeneseri": 8319,
      "Ebiasafi": 8320,
      "Frigia": 8321,
      "Gọlgọta": 8322,
      "Gannimu": 8323,
      "Geliloti": 8324,
      "Ginetoni": 8325,
      "Iffa": 8326,
      "Ijoni": 8327,
      "Ikẹsi": 8328,
      "Itrani": 8329,
      "Kọ̀wé": 8330,
      "Kelita": 8331,
      "Odedi": 8332,
      "Pleiade": 8333,
      "Tahani": 8334,
      "Unni": 8335,
      "Yálà": 8336,
      "adíkálà": 8337,
      "apògèdè": 8338,
      "apọnmi": 8339,
      "ametisiti": 8340,
      "bìínú": 8341,
      "eegun": 8342,
      "efangeli": 8343,
      "jẹnirun": 8344,
      "Àdàbà": 8345,
      "Àpáta": 8346,
      "Ìdajì": 8347,
      "Òróró": 8348,
      "àkànṣe": 8349,
      "àbùdá": 8350,
      "àfọ̀mọ́": 8351,
      "ìrilẹ̀": 8352,
      "ìfọ̀kànbalẹ̀": 8353,
      "ẹhànnà": 8354,
      "ọ̀daràn": 8355,
      "ládugbó": 8356,
      "lágbedeméjì": 8357,
      "sípírẹ́ṣì": 8358,
      "símbálì": 8359,
      "lúwẹ̀ẹ́": 8360,
      "léfòó": 8361,
      "mọ́kọ̀ọ̀kànlá": 8362,
      "rúgúdù": 8363,
      "lẹ́tọ̀ọ́": 8364,
      "alátìlẹ́yìn": 8365,
      "Jokebedi": 8366,
      "mẹ́fẹ̀ẹ̀fà": 8367,
      "Sakeu": 8368,
      "Betfage": 8369,
      "Segubu": 8370,
      "Miniamini": 8371,
      "Mehetabeeli": 8372,
      "Kaftorimu": 8373,
      "Jaakani": 8374,
      "Jaasieli": 8375,
      "Jaddua": 8376,
      "Ṣillemu": 8377,
      "Kilaudiu": 8378,
      "Ahisamaki": 8379,
      "Esarhadoni": 8380,
      "Beelsebulu": 8381,
      "Akrabbimu": 8382,
      "yẹ́lẹyẹ̀lẹ": 8383,
      "Potifẹra": 8384,
      "alabasita": 8385,
      "Areopagu": 8386,
      "Jaṣobeamu": 8387,
      "Pleiadesi": 8388,
      "efangelisti": 8389,
      "(“": 8390,
      ".,": 8391,
      "017": 8392,
      "052": 8393,
      "280": 8394,
      "320": 8395,
      "360": 8396,
      "345": 8397,
      "372": 8398,
      "43": 8399,
      "48": 8400,
      "435": 8401,
      "55": 8402,
      "67": 8403,
      "68": 8404,
      "69": 8405,
      "630": 8406,
      "642": 8407,
      "652": 8408,
      "675": 8409,
      "76": 8410,
      "730": 8411,
      "750": 8412,
      "720": 8413,
      "736": 8414,
      "775": 8415,
      "83": 8416,
      "85": 8417,
      "86": 8418,
      "87": 8419,
      "98": 8420,
      "900": 8421,
      "930": 8422,
      ":’": 8423,
      "Ani": 8424,
      "Ajá": 8425,
      "Aru": 8426,
      "Alu": 8427,
      "Aburú": 8428,
      "Agu": 8429,
      "Assari": 8430,
      "Adari": 8431,
      "Afọ́jú": 8432,
      "Appa": 8433,
      "Asori": 8434,
      "Bù": 8435,
      "Boh": 8436,
      "Bigi": 8437,
      "Bine": 8438,
      "Dọ": 8439,
      "Dẹ́": 8440,
      "Din": 8441,
      "Dára": 8442,
      "Eyín": 8443,
      "Elu": 8444,
      "Eke": 8445,
      "Eré": 8446,
      "Ewé": 8447,
      "Ella": 8448,
      "Epi": 8449,
      "Eteri": 8450,
      "Emeki": 8451,
      "Erani": 8452,
      "Enaimu": 8453,
      "Ereki": 8454,
      "Fèrè": 8455,
      "Fọn": 8456,
      "Gu": 8457,
      "Gamu": 8458,
      "Gina": 8459,
      "Gbó": 8460,
      "Gbójú": 8461,
      "Gahari": 8462,
      "Hẹ": 8463,
      "Hani": 8464,
      "Haṣi": 8465,
      "In": 8466,
      "Ibí": 8467,
      "Ika": 8468,
      "Idì": 8469,
      "Ihò": 8470,
      "Iramu": 8471,
      "Irínwó": 8472,
      "Ieseri": 8473,
      "Imri": 8474,
      "Ibìkan": 8475,
      "Ifita": 8476,
      "Jọ́": 8477,
      "Jana": 8478,
      "Jakimu": 8479,
      "KẸ": 8480,
      "Kan": 8481,
      "Kabu": 8482,
      "Kìl": 8483,
      "Koli": 8484,
      "Kàkà": 8485,
      "Lọ́nà": 8486,
      "Min": 8487,
      "Mẹli": 8488,
      "Meli": 8489,
      "Mahasi": 8490,
      "Os": 8491,
      "Ori": 8492,
      "Ose": 8493,
      "Oko": 8494,
      "Ofin": 8495,
      "Ome": 8496,
      "Owú": 8497,
      "One": 8498,
      "Ogójì": 8499,
      "Ohadi": 8500,
      "Olóòótọ́": 8501,
      "Oorun": 8502,
      "Onesi": 8503,
      "Pí": 8504,
      "Pọ": 8505,
      "Pun": 8506,
      "Pin": 8507,
      "Para": 8508,
      "Pàá": 8509,
      "Pulu": 8510,
      "Ré": 8511,
      "Rú": 8512,
      "Rìn": 8513,
      "Rahamu": 8514,
      "Spa": 8515,
      "Sọ́dọ̀": 8516,
      "Tri": 8517,
      "Toh": 8518,
      "Tigi": 8519,
      "Tètè": 8520,
      "Usa": 8521,
      "Uṣa": 8522,
      "Uttai": 8523,
      "Upasi": 8524,
      "Wẹ": 8525,
      "Ya": 8526,
      "Yè": 8527,
      "Yọ̀": 8528,
      "abá": 8529,
      "ajẹ́": 8530,
      "aṣẹ́": 8531,
      "abẹ̀": 8532,
      "akú": 8533,
      "afẹ́": 8534,
      "atọ́": 8535,
      "aro": 8536,
      "aga": 8537,
      "afun": 8538,
      "abúra": 8539,
      "aṣẹ́gun": 8540,
      "agbẹ̀san": 8541,
      "afani": 8542,
      "adiah": 8543,
      "asínwín": 8544,
      "atọ́ka": 8545,
      "akin": 8546,
      "apọ́": 8547,
      "awakọ̀": 8548,
      "abanijẹ́": 8549,
      "ajẹnirun": 8550,
      "bun": 8551,
      "bọwọ́": 8552,
      "bbà": 8553,
      "bneiah": 8554,
      "ddi": 8555,
      "dmo": 8556,
      "dda": 8557,
      "dgadi": 8558,
      "eni": 8559,
      "ekò": 8560,
      "egbé": 8561,
      "etu": 8562,
      "erèé": 8563,
      "fàti": 8564,
      "fsi": 8565,
      "fka": 8566,
      "fàá": 8567,
      "fògo": 8568,
      "fìrí": 8569,
      "fahi": 8570,
      "họ́n": 8571,
      "hara": 8572,
      "heli": 8573,
      "id": 8574,
      "iwọ": 8575,
      "irà": 8576,
      "jè": 8577,
      "jayé": 8578,
      "jàì": 8579,
      "jiná": 8580,
      "kóò": 8581,
      "kla": 8582,
      "kkiah": 8583,
      "lèyí": 8584,
      "lòun": 8585,
      "lanu": 8586,
      "ltieli": 8587,
      "mti": 8588,
      "mah": 8589,
      "mdani": 8590,
      "mùnú": 8591,
      "mẹ̀kún": 8592,
      "maraimu": 8593,
      "nke": 8594,
      "nge": 8595,
      "ndaran": 8596,
      "ofi": 8597,
      "onígbà": 8598,
      "odì": 8599,
      "oǹdè": 8600,
      "ogóje": 8601,
      "omìmì": 8602,
      "pilẹ̀": 8603,
      "pọlọ": 8604,
      "rsi": 8605,
      "rìní": 8606,
      "róòro": 8607,
      "sbi": 8608,
      "sre": 8609,
      "sro": 8610,
      "ste": 8611,
      "stali": 8612,
      "smai": 8613,
      "skati": 8614,
      "tàwọn": 8615,
      "tse": 8616,
      "tma": 8617,
      "tulu": 8618,
      "tẹ̀yẹ": 8619,
      "uda": 8620,
      "uru": 8621,
      "urani": 8622,
      "wẹ̀yìn": 8623,
      "wẹsẹ̀": 8624,
      "Àlè": 8625,
      "Àtù": 8626,
      "Àṣí": 8627,
      "Àgbò": 8628,
      "Àmù": 8629,
      "Àṣà": 8630,
      "Àwọsánmọ̀": 8631,
      "Àpẹẹrẹ": 8632,
      "Àròyé": 8633,
      "Àtakò": 8634,
      "Àṣẹ̀ṣẹ̀yọ": 8635,
      "Àtẹ̀wọ": 8636,
      "Àròpọ̀": 8637,
      "Àpèjúwe": 8638,
      "Àyànmọ́": 8639,
      "Àlìkámà": 8640,
      "Ábbà": 8641,
      "Èsì": 8642,
      "Èdìdì": 8643,
      "Ìní": 8644,
      "Ìṣe": 8645,
      "Ìgbé": 8646,
      "Ìwọ̀": 8647,
      "Ìkọ́": 8648,
      "Ìyè": 8649,
      "Ìkún": 8650,
      "Ìwò": 8651,
      "Ìdúró": 8652,
      "Ìsun": 8653,
      "Ìṣí": 8654,
      "Ìsinmi": 8655,
      "Ìpin": 8656,
      "Ìrántí": 8657,
      "Ìyípadà": 8658,
      "Ìgbẹ́kẹ̀lé": 8659,
      "Ìṣẹ́gun": 8660,
      "Ìpàdé": 8661,
      "Ìmúra": 8662,
      "Ìhìn": 8663,
      "Ìwàásù": 8664,
      "Ìyẹ̀": 8665,
      "Ìmòye": 8666,
      "Ìkórè": 8667,
      "Ìdáríjì": 8668,
      "Ìṣàn": 8669,
      "Ìkọ̀sílẹ̀": 8670,
      "Ìràwọ̀": 8671,
      "Ìgbẹ̀yìn": 8672,
      "Ìgbéyàwó": 8673,
      "Ìkànìyàn": 8674,
      "Ìparadà": 8675,
      "Òrùn": 8676,
      "Òpó": 8677,
      "Òhun": 8678,
      "Òkìtì": 8679,
      "àrẹ": 8680,
      "àlọ": 8681,
      "àwà": 8682,
      "àgbọ́": 8683,
      "àìdá": 8684,
      "àtu": 8685,
      "àtẹ": 8686,
      "àpamọ́": 8687,
      "àkọjú": 8688,
      "àyọrí": 8689,
      "àdánwò": 8690,
      "àìpọ́n": 8691,
      "àìjiyàn": 8692,
      "àtẹ̀wọ": 8693,
      "árẹ̀": 8694,
      "áwó": 8695,
      "ápọn": 8696,
      "ákónì": 8697,
      "èkúté": 8698,
      "èhíhù": 8699,
      "ìwọn": 8700,
      "ìmu": 8701,
      "ìdé": 8702,
      "ìbo": 8703,
      "ìgba": 8704,
      "ìlu": 8705,
      "ìwó": 8706,
      "ìga": 8707,
      "ìtọ̀": 8708,
      "ìsọ̀rọ̀": 8709,
      "ìfa": 8710,
      "ìdìde": 8711,
      "ìsan": 8712,
      "ìgòkè": 8713,
      "ìgàn": 8714,
      "ìdẹ": 8715,
      "ìfẹ̀": 8716,
      "ìjẹun": 8717,
      "ìmúlẹ̀": 8718,
      "ìsáré": 8719,
      "ìfetísílẹ̀": 8720,
      "ìsẹ́": 8721,
      "ìbọ̀wọ̀": 8722,
      "ìmọ̀nàmọ́ná": 8723,
      "ìfaradà": 8724,
      "ìgbani": 8725,
      "ìwalẹ̀": 8726,
      "ìdárayá": 8727,
      "ìráhùn": 8728,
      "ìkànìyàn": 8729,
      "ìbọn": 8730,
      "ìwẹsẹ̀": 8731,
      "òó": 8732,
      "òlù": 8733,
      "òdó": 8734,
      "òótọ́": 8735,
      "ògbu": 8736,
      "òróòro": 8737,
      "ótí": 8738,
      "ókan": 8739,
      "ópọ̀": 8740,
      "ùdù": 8741,
      "ùṣọ̀": 8742,
      "ńtata": 8743,
      "ǹdù": 8744,
      "Ṣeli": 8745,
      "Ṣali": 8746,
      "Ṣarai": 8747,
      "ṣùn": 8748,
      "ṣpa": 8749,
      "ṣaláì": 8750,
      "ṣàjèjì": 8751,
      "ṣaláìní": 8752,
      "ṣọpẹ́": 8753,
      "ṣbeka": 8754,
      "ṣàjọyọ̀": 8755,
      "Ẹjọ́": 8756,
      "Ẹgba": 8757,
      "Ẹrù": 8758,
      "Ẹlòmíràn": 8759,
      "ẹgba": 8760,
      "ẹgàn": 8761,
      "ẹpọ̀n": 8762,
      "Ọtí": 8763,
      "Ọlọ́": 8764,
      "Ọmú": 8765,
      "Ọkọ̀": 8766,
      "Ọlọ̀tẹ̀": 8767,
      "ọo": 8768,
      "ọwọn": 8769,
      "ọní": 8770,
      "ọbí": 8771,
      "ọnítorí": 8772,
      "ọbà": 8773,
      "ọrún": 8774,
      "”“": 8775,
      "wọra": 8776,
      "ẹ̀ṣẹ́": 8777,
      "ẹ̀tẹ́": 8778,
      "ẹ̀kọ̀": 8779,
      "ẹ̀tù": 8780,
      "ẹ̀wẹ̀": 8781,
      "ẹ̀kẹrìnlélógún": 8782,
      "ẹ̀bìtì": 8783,
      "gbú": 8784,
      "gbara": 8785,
      "tin": 8786,
      "tira": 8787,
      "tilé": 8788,
      "tiredi": 8789,
      "ọ́tí": 8790,
      "ọ́yóò": 8791,
      "ọ́èmi": 8792,
      "ọ́jì": 8793,
      "ọ́mọ̀": 8794,
      "ọ́rọ́": 8795,
      "wọnbí": 8796,
      "wọnpẹ̀lú": 8797,
      "wọnèmi": 8798,
      "wọnNítorí": 8799,
      "wọnnígbà": 8800,
      "wọnàní": 8801,
      "wọngbòòrò": 8802,
      "wọnjan": 8803,
      "níwọ́n": 8804,
      "níjọ́": 8805,
      "níràn": 8806,
      "níyà": 8807,
      "nírètí": 8808,
      "nípẹ̀kun": 8809,
      "nígbẹ̀yìn": 8810,
      "níhòhò": 8811,
      "níṣàájú": 8812,
      "níṣẹ̀ẹ́": 8813,
      "tía": 8814,
      "tíẹ": 8815,
      "tíwọn": 8816,
      "tíènìyàn": 8817,
      "títan": 8818,
      "títo": 8819,
      "ọ̀wá": 8820,
      "ọ̀mu": 8821,
      "ọ̀bọ̀": 8822,
      "ọ̀dájú": 8823,
      "ọ̀dàn": 8824,
      "ọ̀kánjúwà": 8825,
      "ọ̀mùnú": 8826,
      "sìsọ": 8827,
      "nió": 8828,
      "niwọn": 8829,
      "niàti": 8830,
      "ninú": 8831,
      "niỌlọ́run": 8832,
      "nidà": 8833,
      "nièmi": 8834,
      "niṣùgbọ́n": 8835,
      "niOlùgbàlà": 8836,
      "nisọ́nà": 8837,
      "nilẹ́kun": 8838,
      "úntí": 8839,
      "únni": 8840,
      "úngbogbo": 8841,
      "àwọnọmọ": 8842,
      "àwọnẹni": 8843,
      "àwọnòrìṣà": 8844,
      "ríra": 8845,
      "ríwí": 8846,
      "rírọ̀": 8847,
      "ríÈmi": 8848,
      "ríṣùgbọ́n": 8849,
      "rírùn": 8850,
      "rírà": 8851,
      "rírò": 8852,
      "rírọ": 8853,
      "ríyá": 8854,
      "ríìmù": 8855,
      "lát": 8856,
      "láyìí": 8857,
      "lálàáfíà": 8858,
      "láìyẹ̀": 8859,
      "láàádọ́ta": 8860,
      "láràárọ̀": 8861,
      "láṣepé": 8862,
      "láńtata": 8863,
      "ramọ́": 8864,
      "raku": 8865,
      "rafeli": 8866,
      "inyà": 8867,
      "inani": 8868,
      "midi": 8869,
      "minínú": 8870,
      "miNítorí": 8871,
      "mikúrò": 8872,
      "miṣùgbọ́n": 8873,
      "mima": 8874,
      "milára": 8875,
      "miAbrahamu": 8876,
      "miṣé": 8877,
      "sígbogbo": 8878,
      "síṣùgbọ́n": 8879,
      "sísún": 8880,
      "sísàlẹ̀": 8881,
      "rẹ̀a": 8882,
      "rẹ̀Ẹ": 8883,
      "rẹ̀ẹ": 8884,
      "rẹ̀wọn": 8885,
      "rẹ̀ní": 8886,
      "rẹ̀ẹ́": 8887,
      "rẹ̀àwọn": 8888,
      "rẹ̀sí": 8889,
      "rẹ̀fún": 8890,
      "rẹ̀wọ́n": 8891,
      "rẹ̀nínú": 8892,
      "rẹ̀mo": 8893,
      "rẹ̀èmi": 8894,
      "rẹ̀ẹ̀yin": 8895,
      "rẹ̀tàbí": 8896,
      "rẹ̀ẹnìkan": 8897,
      "rẹ̀àìṣe": 8898,
      "fúntí": 8899,
      "gboro": 8900,
      "gbodò": 8901,
      "wọ́tó": 8902,
      "wọ́jọ": 8903,
      "óòkú": 8904,
      "ṣení": 8905,
      "ṣeàti": 8906,
      "ṣefún": 8907,
      "ṣefu": 8908,
      "ṣeyọrí": 8909,
      "péẸ": 8910,
      "yílẹ̀": 8911,
      "yíyẹ": 8912,
      "yíyá": 8913,
      "yíràá": 8914,
      "yíyapa": 8915,
      "bíbu": 8916,
      "bíbo": 8917,
      "bíbẹ̀rù": 8918,
      "bíbò": 8919,
      "bíbùkún": 8920,
      "bíbọ́": 8921,
      "bíbàjẹ́": 8922,
      "bíLu": 8923,
      "bíAl": 8924,
      "bíríkí": 8925,
      "firo": 8926,
      "fikún": 8927,
      "fitori": 8928,
      "gbàù": 8929,
      "gbàge": 8930,
      "anna": 8931,
      "anderi": 8932,
      "kíló": 8933,
      "kípò": 8934,
      "kíkọ́ni": 8935,
      "kíkọ̀sílẹ̀": 8936,
      "kílùú": 8937,
      "náàtí": 8938,
      "náààwọn": 8939,
      "náàbí": 8940,
      "náàkí": 8941,
      "náàẹni": 8942,
      "babeli": 8943,
      "baali": 8944,
      "mọgbogbo": 8945,
      "lọ́kọ̀": 8946,
      "lọ́jà": 8947,
      "lọ́kọ̀ọ̀kan": 8948,
      "pani": 8949,
      "paàti": 8950,
      "pagbo": 8951,
      "pateru": 8952,
      "payínkeke": 8953,
      "kòrò": 8954,
      "kòríkò": 8955,
      "wáó": 8956,
      "wásí": 8957,
      "wábí": 8958,
      "wárá": 8959,
      "wáèmi": 8960,
      "wárì": 8961,
      "wákiri": 8962,
      "wọ́nà": 8963,
      "wọ́nó": 8964,
      "wọ́nní": 8965,
      "wọ́nBí": 8966,
      "ọmọlẹ́yìn": 8967,
      "ọmọSo": 8968,
      "ọmọBẹtilẹhẹmu": 8969,
      "ọmọAsafu": 8970,
      "ọmọJeṣua": 8971,
      "ọmọJedaiah": 8972,
      "ọmọDelaiah": 8973,
      "ọmọParoṣi": 8974,
      "ọmọṢiha": 8975,
      "ìyẹ": 8976,
      "ìyọ": 8977,
      "liti": 8978,
      "liusi": 8979,
      "liberi": 8980,
      "látiọ̀dọ̀": 8981,
      "runní": 8982,
      "runtí": 8983,
      "runyóò": 8984,
      "kanàti": 8985,
      "kanyóò": 8986,
      "kanMo": 8987,
      "kaneli": 8988,
      "rẹa": 8989,
      "rẹti": 8990,
      "rẹsì": 8991,
      "rẹra": 8992,
      "rẹpé": 8993,
      "rẹbí": 8994,
      "rẹwọ́n": 8995,
      "rẹjẹ́": 8996,
      "rẹgẹ́gẹ́": 8997,
      "rẹnípa": 8998,
      "rẹbẹ́ẹ̀": 8999,
      "rẹpẹ": 9000,
      "rẹtẹ̀": 9001,
      "júbà": 9002,
      "júfù": 9003,
      "léso": 9004,
      "léèérí": 9005,
      "léláá": 9006,
      "léláàádọ́ta": 9007,
      "ìnání": 9008,
      "ìnáwó": 9009,
      "bámú": 9010,
      "báyé": 9011,
      "jẹ́tí": 9012,
      "jẹ́lú": 9013,
      "rinlẹ̀": 9014,
      "rindò": 9015,
      "rindín": 9016,
      "wíní": 9017,
      "wíwọ̀": 9018,
      "wílò": 9019,
      "wíẸni": 9020,
      "wíwẹ̀": 9021,
      "wíwọlé": 9022,
      "wíwúwo": 9023,
      "gbogbotí": 9024,
      "lósì": 9025,
      "lótu": 9026,
      "lódidi": 9027,
      "lóókan": 9028,
      "lọwọn": 9029,
      "lọkí": 9030,
      "lọláti": 9031,
      "lọpẹ̀lú": 9032,
      "rámù": 9033,
      "dání": 9034,
      "dáwà": 9035,
      "dágun": 9036,
      "dábàá": 9037,
      "dánilójú": 9038,
      "dánilẹ́kun": 9039,
      "dili": 9040,
      "diwọ̀n": 9041,
      "ditu": 9042,
      "mútí": 9043,
      "mọ́tí": 9044,
      "mọ́àti": 9045,
      "mọ́wọ́": 9046,
      "mọ́lé": 9047,
      "mọ́Nítorí": 9048,
      "mọ́nígbà": 9049,
      "mọ́ṣùgbọ́n": 9050,
      "waàti": 9051,
      "wakí": 9052,
      "waláti": 9053,
      "waohun": 9054,
      "waàwa": 9055,
      "wààti": 9056,
      "wàlára": 9057,
      "nínúyóò": 9058,
      "ènìyànẸ": 9059,
      "ènìyànyóò": 9060,
      "ènìyànkí": 9061,
      "ènìyànláti": 9062,
      "ènìyàngẹ́gẹ́": 9063,
      "ènìyàntàbí": 9064,
      "kọàwọn": 9065,
      "kọta": 9066,
      "yína": 9067,
      "yínẹ": 9068,
      "yínkí": 9069,
      "yíntó": 9070,
      "ridi": 9071,
      "rifu": 9072,
      "Ọlọ́runwọn": 9073,
      "Ọlọ́runẹni": 9074,
      "kùnso": 9075,
      "márídìí": 9076,
      "gbọ́nṣùgbọ́n": 9077,
      "bita": 9078,
      "mura": 9079,
      "muàti": 9080,
      "murá": 9081,
      "muliberi": 9082,
      "pẹ̀lúkí": 9083,
      "míláti": 9084,
      "rúbì": 9085,
      "rúhá": 9086,
      "gẹ́lẹ́": 9087,
      "ọbakí": 9088,
      "ọbakùnrin": 9089,
      "gbéje": 9090,
      "dàán": 9091,
      "arati": 9092,
      "arami": 9093,
      "mon": 9094,
      "modadi": 9095,
      ".”)": 9096,
      "Jera": 9097,
      "Jedi": 9098,
      "Jesa": 9099,
      "Jeha": 9100,
      "Jete": 9101,
      "Jemueli": 9102,
      "ẹnibúburú": 9103,
      "yìítí": 9104,
      "ṣẹ́ku": 9105,
      "ṣẹ́kẹ́ṣẹkẹ̀": 9106,
      "tati": 9107,
      "takùn": 9108,
      "takété": 9109,
      "Isà": 9110,
      "ilẹ̀èmi": 9111,
      "ilẹ̀nígbà": 9112,
      "jábọ̀": 9113,
      "jákulẹ̀": 9114,
      "bẹ̀lá": 9115,
      "Israhiah": 9116,
      "Israẹliní": 9117,
      "Israẹliàwọn": 9118,
      "Israẹliàti": 9119,
      "Israẹliyóò": 9120,
      "Israẹliìwọ": 9121,
      "Israẹlinígbà": 9122,
      "Israẹliṣùgbọ́n": 9123,
      "reni": 9124,
      "rera": 9125,
      "remu": 9126,
      "rela": 9127,
      "reamu": 9128,
      "refoti": 9129,
      "kútí": 9130,
      "kújẹ": 9131,
      "ahéré": 9132,
      "jẹtí": 9133,
      "jẹàwọn": 9134,
      "jẹrun": 9135,
      "jẹran": 9136,
      "dọ̀tun": 9137,
      "lóríṣìíríṣìí": 9138,
      "dídẹ": 9139,
      "làtí": 9140,
      "làṣùgbọ́n": 9141,
      "làlọ́wọ́": 9142,
      "sipu": 9143,
      "sitali": 9144,
      "siumu": 9145,
      "daa": 9146,
      "kójú": 9147,
      "kèrindò": 9148,
      "ibini": 9149,
      "ibiṣùgbọ́n": 9150,
      "dégbà": 9151,
      "délé": 9152,
      "lẹ́kún": 9153,
      "lẹ́rìn": 9154,
      "lẹ́rìí": 9155,
      "lẹ́sọ̀": 9156,
      "lefi": 9157,
      "lemu": 9158,
      "leke": 9159,
      "letai": 9160,
      "leedi": 9161,
      "lenge": 9162,
      "kúròkí": 9163,
      "kúrònínú": 9164,
      "kúròtàbí": 9165,
      "tàwa": 9166,
      "tàṣẹ": 9167,
      "tàdáwà": 9168,
      "bona": 9169,
      "bodu": 9170,
      "boati": 9171,
      "dokia": 9172,
      "búàwọn": 9173,
      "búkí": 9174,
      "búlúù": 9175,
      "rumu": 9176,
      "rubu": 9177,
      "aláta": 9178,
      "alájẹ": 9179,
      "alágbe": 9180,
      "aláyọ̀": 9181,
      "alárékọjá": 9182,
      "alábùkù": 9183,
      "alátúnṣe": 9184,
      "alájèjì": 9185,
      "aláhọ́n": 9186,
      "sar": 9187,
      "saba": 9188,
      "safani": 9189,
      "Moriah": 9190,
      "Moadiah": 9191,
      "kaye": 9192,
      "kaoni": 9193,
      "kaboti": 9194,
      "kalamu": 9195,
      "tóbẹ́ẹ̀": 9196,
      "ayàwòrán": 9197,
      "ayálé": 9198,
      "mọ̀ohun": 9199,
      "mọ̀lù": 9200,
      "kọ́wọn": 9201,
      "kọ́lẹ̀": 9202,
      "kọ́rọ́": 9203,
      "padàkò": 9204,
      "padàláti": 9205,
      "padàbẹ́ẹ̀": 9206,
      "ojúlé": 9207,
      "ojúkójú": 9208,
      "ranjú": 9209,
      "randíran": 9210,
      "sedi": 9211,
      "seeli": 9212,
      "kiu": 9213,
      "kimeamu": 9214,
      "jádeàti": 9215,
      "jádenítorí": 9216,
      "kẹ́ṣẹ̀": 9217,
      "kẹ́rù": 9218,
      "ìlúkílùú": 9219,
      "tẹ́lọ́rùn": 9220,
      "rona": 9221,
      "ràndàn": 9222,
      "ààjà": 9223,
      "kùní": 9224,
      "ìgbàdégbà": 9225,
      "lọ́wọ́ó": 9226,
      "lọ́wọ́àwọn": 9227,
      "lọ́wọ́àti": 9228,
      "ọ̀nàní": 9229,
      "ọ̀nàkọnà": 9230,
      "sílẹ̀wọn": 9231,
      "sílẹ̀ṣùgbọ́n": 9232,
      "kúnpẹ̀lú": 9233,
      "kúndùn": 9234,
      "Dal": 9235,
      "Darí": 9236,
      "Jose": 9237,
      "Jogbe": 9238,
      "Joṣbeka": 9239,
      "Joanna": 9240,
      "Jokimeamu": 9241,
      "jọàwọn": 9242,
      "jọra": 9243,
      "jọjú": 9244,
      "mamu": 9245,
      "maiah": 9246,
      "mamti": 9247,
      "wòtí": 9248,
      "kéte": 9249,
      "rínrìn": 9250,
      "kàdá": 9251,
      "Bíbú": 9252,
      "Bíríkì": 9253,
      "ṣẹ̀san": 9254,
      "dúrónínú": 9255,
      "òkèwọ́n": 9256,
      "òkègbodò": 9257,
      "bẹ́ẹ̀tí": 9258,
      "dìjọ": 9259,
      "dìmọ́ra": 9260,
      "hati": 9261,
      "haba": 9262,
      "habimu": 9263,
      "kodi": 9264,
      "komu": 9265,
      "koki": 9266,
      "koto": 9267,
      "àgún": 9268,
      "Kíkú": 9269,
      "Kíyèsí": 9270,
      "ogunni": 9271,
      "ogunyóò": 9272,
      "ogunkógun": 9273,
      "bùdó": 9274,
      "lusiumu": 9275,
      "Samo": 9276,
      "Salo": 9277,
      "Saanani": 9278,
      "Sakari": 9279,
      "Safira": 9280,
      "Saafani": 9281,
      "Saridi": 9282,
      "aṣàì": 9283,
      "aṣọ̀fọ̀": 9284,
      "aṣàtìpó": 9285,
      "aṣọ̀tẹ̀": 9286,
      "ọkànwá": 9287,
      "ọkànṣùgbọ́n": 9288,
      "keni": 9289,
      "keru": 9290,
      "kereti": 9291,
      "keremu": 9292,
      "ayéni": 9293,
      "ayéàwọn": 9294,
      "ayéyóò": 9295,
      "yànítorí": 9296,
      "ìṣọ̀tá": 9297,
      "lẹyìn": 9298,
      "tálẹ̀": 9299,
      "tákàdá": 9300,
      "ìpo": 9301,
      "ìpàṣẹ": 9302,
      "ìpọn": 9303,
      "ìpàgọ́": 9304,
      "ìpinyà": 9305,
      "káó": 9306,
      "kání": 9307,
      "kárí": 9308,
      "kálára": 9309,
      "Juliusi": 9310,
      "Bati": 9311,
      "Basi": 9312,
      "Baka": 9313,
      "Baana": 9314,
      "Baslu": 9315,
      "wómú": 9316,
      "ròhìn": 9317,
      "gani": 9318,
      "gaara": 9319,
      "fàtafà": 9320,
      "rójú": 9321,
      "omiwọ́n": 9322,
      "Judayóò": 9323,
      "ladi": 9324,
      "lata": 9325,
      "lasi": 9326,
      "lalai": 9327,
      "gúnnu": 9328,
      "sẹ̀san": 9329,
      "nadi": 9330,
      "nakánná": 9331,
      "tànmọ́lẹ̀": 9332,
      "ẹranàti": 9333,
      "ẹrankẹ́ran": 9334,
      "méjìtí": 9335,
      "Moserotu": 9336,
      "àṣẹdíẹ̀": 9337,
      "tìbẹ̀rù": 9338,
      "tìkálára": 9339,
      "èdèbí": 9340,
      "èdèkí": 9341,
      "èdèláti": 9342,
      "èdèfọ̀": 9343,
      "búburúyóò": 9344,
      "búburúkí": 9345,
      "búburúláti": 9346,
      "búburúmá": 9347,
      "búburúkúrò": 9348,
      "gbẹ́sẹ̀": 9349,
      "ìdáni": 9350,
      "ìdágbére": 9351,
      "Jeruṣa": 9352,
      "lárapẹ̀lú": 9353,
      "Jerusalẹmuti": 9354,
      "Ẹ̀jẹ́": 9355,
      "Ẹ̀kọ́": 9356,
      "Ẹ̀yìn": 9357,
      "Ẹ̀tọ́": 9358,
      "Ẹ̀san": 9359,
      "Ẹ̀ẹ́dẹ́": 9360,
      "Ẹ̀kẹrin": 9361,
      "Ẹ̀kẹsànán": 9362,
      "nìtí": 9363,
      "gbọràn": 9364,
      "aláìsí": 9365,
      "aláìmọ": 9366,
      "aláìrékọjá": 9367,
      "aláìléwu": 9368,
      "aláìlópin": 9369,
      "aláìbìkítà": 9370,
      "aláìlófin": 9371,
      "onídà": 9372,
      "onígun": 9373,
      "oníga": 9374,
      "onípò": 9375,
      "onísùn": 9376,
      "onítúbú": 9377,
      "onímọ̀ràn": 9378,
      "oníyèméjì": 9379,
      "oníhóró": 9380,
      "oníhòhò": 9381,
      "oníjàgídíjàgan": 9382,
      "oníbìínú": 9383,
      "sábà": 9384,
      "sáárá": 9385,
      "rìnlá": 9386,
      "àìlá": 9387,
      "àìlè": 9388,
      "àìdára": 9389,
      "àìgbọdọ̀": 9390,
      "àìbẹ̀rù": 9391,
      "àìjẹun": 9392,
      "àìkùnà": 9393,
      "àìkíyèsí": 9394,
      "àìbọ̀wọ̀": 9395,
      "àìnígbàgbọ́": 9396,
      "àìlóye": 9397,
      "àìbìkítà": 9398,
      "àìlérè": 9399,
      "àìlẹ́ṣẹ̀": 9400,
      "àìkàsí": 9401,
      "àìlèyí": 9402,
      "àìléèérí": 9403,
      "Ejibitiwọn": 9404,
      "ẹ̀ṣẹ̀kẹ́ṣẹ̀": 9405,
      "wéré": 9406,
      "àjóòkú": 9407,
      "son": 9408,
      "sowọ́pọ̀": 9409,
      "soliti": 9410,
      "Bero": 9411,
      "Bedani": 9412,
      "Bedadi": 9413,
      "Beredi": 9414,
      "láéní": 9415,
      "láékí": 9416,
      "loamu": 9417,
      "tọ̀run": 9418,
      "tọ̀hún": 9419,
      "tùtù": 9420,
      "tújúká": 9421,
      "lílu": 9422,
      "Sia": 9423,
      "Sif": 9424,
      "Sisa": 9425,
      "Sismai": 9426,
      "Siletai": 9427,
      "Siloamu": 9428,
      "ọ̀runàti": 9429,
      "olùtọ́": 9430,
      "olùgba": 9431,
      "olùfihàn": 9432,
      "olùdájọ́": 9433,
      "olùdánwò": 9434,
      "olùràpadà": 9435,
      "rereàti": 9436,
      "faki": 9437,
      "olómi": 9438,
      "olórúkọ": 9439,
      "olówù": 9440,
      "kunmí": 9441,
      "hànṣùgbọ́n": 9442,
      "pege": 9443,
      "gbẹ̀ẹ́": 9444,
      "kejìlélọ́gbọ̀n": 9445,
      "Krisipu": 9446,
      "jaeli": 9447,
      "jasini": 9448,
      "pòrò": 9449,
      "pòṣé": 9450,
      "tuhimu": 9451,
      "turosi": 9452,
      "sókèga": 9453,
      "fífọn": 9454,
      "fífàya": 9455,
      "fífúyẹ́": 9456,
      "dìdebí": 9457,
      "Abrona": 9458,
      "bọ̀tán": 9459,
      "bọ̀sípò": 9460,
      "dùnṣùgbọ́n": 9461,
      "títọ́jú": 9462,
      "ṣísẹ̀": 9463,
      "ṣíṣubú": 9464,
      "ṣílẹ̀kùn": 9465,
      "ináàti": 9466,
      "inákí": 9467,
      "tẹramọ́": 9468,
      "kòótan": 9469,
      "Lemueli": 9470,
      "Lebana": 9471,
      "Leṣemu": 9472,
      "Lehabimu": 9473,
      "Hela": 9474,
      "Heresi": 9475,
      "Hesiri": 9476,
      "Helami": 9477,
      "Hemdani": 9478,
      "Ọ̀wọ́n": 9479,
      "Ọ̀já": 9480,
      "Ọ̀fẹ́": 9481,
      "Ọ̀ràn": 9482,
      "Ọ̀sán": 9483,
      "Ọ̀kánjúwà": 9484,
      "teka": 9485,
      "teeli": 9486,
      "teṣassari": 9487,
      "bera": 9488,
      "dòdò": 9489,
      "dòfo": 9490,
      "gbóyà": 9491,
      "gbóríyìn": 9492,
[...]
